{"version": "1.0", "truncation": null, "padding": null, "added_tokens": [{"id": 151643, "content": "<|endoftext|>", "single_word": false, "lstrip": false, "rstrip": false, "normalized": false, "special": true}, {"id": 151644, "content": "<|im_start|>", "single_word": false, "lstrip": false, "rstrip": false, "normalized": false, "special": true}, {"id": 151645, "content": "<|im_end|>", "single_word": false, "lstrip": false, "rstrip": false, "normalized": false, "special": true}, {"id": 151646, "content": "<|object_ref_start|>", "single_word": false, "lstrip": false, "rstrip": false, "normalized": false, "special": true}, {"id": 151647, "content": "<|object_ref_end|>", "single_word": false, "lstrip": false, "rstrip": false, "normalized": false, "special": true}, {"id": 151648, "content": "<|box_start|>", "single_word": false, "lstrip": false, "rstrip": false, "normalized": false, "special": true}, {"id": 151649, "content": "<|box_end|>", "single_word": false, "lstrip": false, "rstrip": false, "normalized": false, "special": true}, {"id": 151650, "content": "<|quad_start|>", "single_word": false, "lstrip": false, "rstrip": false, "normalized": false, "special": true}, {"id": 151651, "content": "<|quad_end|>", "single_word": false, "lstrip": false, "rstrip": false, "normalized": false, "special": true}, {"id": 151652, "content": "<|vision_start|>", "single_word": false, "lstrip": false, "rstrip": false, "normalized": false, "special": true}, {"id": 151653, "content": "<|vision_end|>", "single_word": false, "lstrip": false, "rstrip": false, "normalized": false, "special": true}, {"id": 151654, "content": "<|vision_pad|>", "single_word": false, "lstrip": false, "rstrip": false, "normalized": false, "special": true}, {"id": 151655, "content": "<|image_pad|>", "single_word": false, "lstrip": false, "rstrip": false, "normalized": false, "special": true}, {"id": 151656, "content": "<|video_pad|>", "single_word": false, "lstrip": false, "rstrip": false, "normalized": false, "special": true}, {"id": 151657, "content": "<tool_call>", "single_word": false, "lstrip": false, "rstrip": false, "normalized": false, "special": false}, {"id": 151658, "content": "</tool_call>", "single_word": false, "lstrip": false, "rstrip": false, "normalized": false, "special": false}, {"id": 151659, "content": "<|fim_prefix|>", "single_word": false, "lstrip": false, "rstrip": false, "normalized": false, "special": false}, {"id": 151660, "content": "<|fim_middle|>", "single_word": false, "lstrip": false, "rstrip": false, "normalized": false, "special": false}, {"id": 151661, "content": "<|fim_suffix|>", "single_word": false, "lstrip": false, "rstrip": false, "normalized": false, "special": false}, {"id": 151662, "content": "<|fim_pad|>", "single_word": false, "lstrip": false, "rstrip": false, "normalized": false, "special": false}, {"id": 151663, "content": "<|repo_name|>", "single_word": false, "lstrip": false, "rstrip": false, "normalized": false, "special": false}, {"id": 151664, "content": "<|file_sep|>", "single_word": false, "lstrip": false, "rstrip": false, "normalized": false, "special": false}, {"id": 151665, "content": "<tool_response>", "single_word": false, "lstrip": false, "rstrip": false, "normalized": false, "special": false}, {"id": 151666, "content": "</tool_response>", "single_word": false, "lstrip": false, "rstrip": false, "normalized": false, "special": false}, {"id": 151667, "content": "<think>", "single_word": false, "lstrip": false, "rstrip": false, "normalized": false, "special": false}, {"id": 151668, "content": "</think>", "single_word": false, "lstrip": false, "rstrip": false, "normalized": false, "special": false}], "normalizer": {"type": "NFC"}, "pre_tokenizer": {"type": "Sequence", "pretokenizers": [{"type": "Split", "pattern": {"Regex": "(?i:'s|'t|'re|'ve|'m|'ll|'d)|[^\\r\\n\\p{L}\\p{N}]?\\p{L}+|\\p{N}| ?[^\\s\\p{L}\\p{N}]+[\\r\\n]*|\\s*[\\r\\n]+|\\s+(?!\\S)|\\s+"}, "behavior": "Isolated", "invert": false}, {"type": "ByteLevel", "add_prefix_space": false, "trim_offsets": false, "use_regex": false}]}, "post_processor": {"type": "ByteLevel", "add_prefix_space": false, "trim_offsets": false, "use_regex": false}, "decoder": {"type": "ByteLevel", "add_prefix_space": false, "trim_offsets": false, "use_regex": false}, "model": {"type": "BPE", "dropout": null, "unk_token": null, "continuing_subword_prefix": "", "end_of_word_suffix": "", "fuse_unk": false, "byte_fallback": false, "ignore_merges": false, "vocab": {"!": 0, "\"": 1, "#": 2, "$": 3, "%": 4, "&": 5, "'": 6, "(": 7, ")": 8, "*": 9, "+": 10, ",": 11, "-": 12, ".": 13, "/": 14, "0": 15, "1": 16, "2": 17, "3": 18, "4": 19, "5": 20, "6": 21, "7": 22, "8": 23, "9": 24, ":": 25, ";": 26, "<": 27, "=": 28, ">": 29, "?": 30, "@": 31, "A": 32, "B": 33, "C": 34, "D": 35, "E": 36, "F": 37, "G": 38, "H": 39, "I": 40, "J": 41, "K": 42, "L": 43, "M": 44, "N": 45, "O": 46, "P": 47, "Q": 48, "R": 49, "S": 50, "T": 51, "U": 52, "V": 53, "W": 54, "X": 55, "Y": 56, "Z": 57, "[": 58, "\\": 59, "]": 60, "^": 61, "_": 62, "`": 63, "a": 64, "b": 65, "c": 66, "d": 67, "e": 68, "f": 69, "g": 70, "h": 71, "i": 72, "j": 73, "k": 74, "l": 75, "m": 76, "n": 77, "o": 78, "p": 79, "q": 80, "r": 81, "s": 82, "t": 83, "u": 84, "v": 85, "w": 86, "x": 87, "y": 88, "z": 89, "{": 90, "|": 91, "}": 92, "~": 93, "\u00a1": 94, "\u00a2": 95, "\u00a3": 96, "\u00a4": 97, "\u00a5": 98, "\u00a6": 99, "\u00a7": 100, "\u00a8": 101, "\u00a9": 102, "\u00aa": 103, "\u00ab": 104, "\u00ac": 105, "\u00ae": 106, "\u00af": 107, "\u00b0": 108, "\u00b1": 109, "\u00b2": 110, "\u00b3": 111, "\u00b4": 112, "\u00b5": 113, "\u00b6": 114, "\u00b7": 115, "\u00b8": 116, "\u00b9": 117, "\u00ba": 118, "\u00bb": 119, "\u00bc": 120, "\u00bd": 121, "\u00be": 122, "\u00bf": 123, "\u00c0": 124, "\u00c1": 125, "\u00c2": 126, "\u00c3": 127, "\u00c4": 128, "\u00c5": 129, "\u00c6": 130, "\u00c7": 131, "\u00c8": 132, "\u00c9": 133, "\u00ca": 134, "\u00cb": 135, "\u00cc": 136, "\u00cd": 137, "\u00ce": 138, "\u00cf": 139, "\u00d0": 140, "\u00d1": 141, "\u00d2": 142, "\u00d3": 143, "\u00d4": 144, "\u00d5": 145, "\u00d6": 146, "\u00d7": 147, "\u00d8": 148, "\u00d9": 149, "\u00da": 150, "\u00db": 151, "\u00dc": 152, "\u00dd": 153, "\u00de": 154, "\u00df": 155, "\u00e0": 156, "\u00e1": 157, "\u00e2": 158, "\u00e3": 159, "\u00e4": 160, "\u00e5": 161, "\u00e6": 162, "\u00e7": 163, "\u00e8": 164, "\u00e9": 165, "\u00ea": 166, "\u00eb": 167, "\u00ec": 168, "\u00ed": 169, "\u00ee": 170, "\u00ef": 171, "\u00f0": 172, "\u00f1": 173, "\u00f2": 174, "\u00f3": 175, "\u00f4": 176, "\u00f5": 177, "\u00f6": 178, "\u00f7": 179, "\u00f8": 180, "\u00f9": 181, "\u00fa": 182, "\u00fb": 183, "\u00fc": 184, "\u00fd": 185, "\u00fe": 186, "\u00ff": 187, "\u0100": 188, "\u0101": 189, "\u0102": 190, "\u0103": 191, "\u0104": 192, "\u0105": 193, "\u0106": 194, "\u0107": 195, "\u0108": 196, "\u0109": 197, "\u010a": 198, "\u010b": 199, "\u010c": 200, "\u010d": 201, "\u010e": 202, "\u010f": 203, "\u0110": 204, "\u0111": 205, "\u0112": 206, "\u0113": 207, "\u0114": 208, "\u0115": 209, "\u0116": 210, "\u0117": 211, "\u0118": 212, "\u0119": 213, "\u011a": 214, "\u011b": 215, "\u011c": 216, "\u011d": 217, "\u011e": 218, "\u011f": 219, "\u0120": 220, "\u0121": 221, "\u0122": 222, "\u0123": 223, "\u0124": 224, "\u0125": 225, "\u0126": 226, "\u0127": 227, "\u0128": 228, "\u0129": 229, "\u012a": 230, "\u012b": 231, "\u012c": 232, "\u012d": 233, "\u012e": 234, "\u012f": 235, "\u0130": 236, "\u0131": 237, "\u0132": 238, "\u0133": 239, "\u0134": 240, "\u0135": 241, "\u0136": 242, "\u0137": 243, "\u0138": 244, "\u0139": 245, "\u013a": 246, "\u013b": 247, "\u013c": 248, "\u013d": 249, "\u013e": 250, "\u013f": 251, "\u0140": 252, "\u0141": 253, "\u0142": 254, "\u0143": 255, "\u0120\u0120": 256, "\u0120\u0120\u0120\u0120": 257, "in": 258, "\u0120t": 259, "\u0120\u0120\u0120\u0120\u0120\u0120\u0120\u0120": 260, "er": 261, "\u0120\u0120\u0120": 262, "on": 263, "\u0120a": 264, "re": 265, "at": 266, "st": 267, "en": 268, "or": 269, "\u0120th": 270, "\u010a\u010a": 271, "\u0120c": 272, "le": 273, "\u0120s": 274, "it": 275, "an": 276, "ar": 277, "al": 278, "\u0120the": 279, ";\u010a": 280, "\u0120p": 281, "\u0120f": 282, "ou": 283, "\u0120=": 284, "is": 285, "\u0120\u0120\u0120\u0120\u0120\u0120\u0120": 286, "ing": 287, "es": 288, "\u0120w": 289, "ion": 290, "ed": 291, "ic": 292, "\u0120b": 293, "\u0120d": 294, "et": 295, "\u0120m": 296, "\u0120o": 297, "\u0109\u0109": 298, "ro": 299, "as": 300, "el": 301, "ct": 302, "nd": 303, "\u0120in": 304, "\u0120h": 305, "ent": 306, "id": 307, "\u0120n": 308, "am": 309, "\u0120\u0120\u0120\u0120\u0120\u0120\u0120\u0120\u0120\u0120\u0120": 310, "\u0120to": 311, "\u0120re": 312, "--": 313, "\u0120{": 314, "\u0120of": 315, "om": 316, ");\u010a": 317, "im": 318, "\u010d\u010a": 319, "\u0120(": 320, "il": 321, "//": 322, "\u0120and": 323, "ur": 324, "se": 325, "\u0120l": 326, "ex": 327, "\u0120S": 328, "ad": 329, "\u0120\"": 330, "ch": 331, "ut": 332, "if": 333, "**": 334, "\u0120}": 335, "em": 336, "ol": 337, "\u0120\u0120\u0120\u0120\u0120\u0120\u0120\u0120\u0120\u0120\u0120\u0120\u0120\u0120\u0120\u0120": 338, "th": 339, ")\u010a": 340, "\u0120{\u010a": 341, "\u0120g": 342, "ig": 343, "iv": 344, ",\u010a": 345, "ce": 346, "od": 347, "\u0120v": 348, "ate": 349, "\u0120T": 350, "ag": 351, "ay": 352, "\u0120*": 353, "ot": 354, "us": 355, "\u0120C": 356, "\u0120st": 357, "\u0120I": 358, "un": 359, "ul": 360, "ue": 361, "\u0120A": 362, "ow": 363, "\u0120'": 364, "ew": 365, "\u0120<": 366, "ation": 367, "()": 368, "\u0120for": 369, "ab": 370, "ort": 371, "um": 372, "ame": 373, "\u0120is": 374, "pe": 375, "tr": 376, "ck": 377, "\u00e2\u0122": 378, "\u0120y": 379, "ist": 380, "----": 381, ".\u010a\u010a": 382, "he": 383, "\u0120e": 384, "lo": 385, "\u0120M": 386, "\u0120be": 387, "ers": 388, "\u0120on": 389, "\u0120con": 390, "ap": 391, "ub": 392, "\u0120P": 393, "\u0120\u0120\u0120\u0120\u0120\u0120\u0120\u0120\u0120\u0120\u0120\u0120\u0120\u0120\u0120": 394, "ass": 395, "int": 396, ">\u010a": 397, "ly": 398, "urn": 399, "\u0120$": 400, ";\u010a\u010a": 401, "av": 402, "port": 403, "ir": 404, "->": 405, "nt": 406, "ction": 407, "end": 408, "\u0120de": 409, "ith": 410, "out": 411, "turn": 412, "our": 413, "\u0120\u0120\u0120\u0120\u0120": 414, "lic": 415, "res": 416, "pt": 417, "==": 418, "\u0120this": 419, "\u0120wh": 420, "\u0120if": 421, "\u0120D": 422, "ver": 423, "age": 424, "\u0120B": 425, "ht": 426, "ext": 427, "=\"": 428, "\u0120that": 429, "****": 430, "\u0120R": 431, "\u0120it": 432, "ess": 433, "\u0120F": 434, "\u0120r": 435, "os": 436, "and": 437, "\u0120as": 438, "ect": 439, "ke": 440, "rom": 441, "\u0120//": 442, "con": 443, "\u0120L": 444, "(\"": 445, "qu": 446, "lass": 447, "\u0120with": 448, "iz": 449, "de": 450, "\u0120N": 451, "\u0120al": 452, "op": 453, "up": 454, "get": 455, "\u0120}\u010a": 456, "ile": 457, "\u0120an": 458, "ata": 459, "ore": 460, "ri": 461, "\u0120pro": 462, ";\u010d\u010a": 463, "\u0109\u0109\u0109\u0109": 464, "ter": 465, "ain": 466, "\u0120W": 467, "\u0120E": 468, "\u0120com": 469, "\u0120return": 470, "art": 471, "\u0120H": 472, "ack": 473, "import": 474, "ublic": 475, "\u0120or": 476, "est": 477, "ment": 478, "\u0120G": 479, "able": 480, "\u0120-": 481, "ine": 482, "ill": 483, "ind": 484, "ere": 485, "::": 486, "ity": 487, "\u0120+": 488, "\u0120tr": 489, "elf": 490, "ight": 491, "('": 492, "orm": 493, "ult": 494, "str": 495, "..": 496, "\",": 497, "\u0120you": 498, "ype": 499, "pl": 500, "\u0120new": 501, "\u0120j": 502, "\u0120\u0120\u0120\u0120\u0120\u0120\u0120\u0120\u0120\u0120\u0120\u0120\u0120\u0120\u0120\u0120\u0120\u0120\u0120": 503, "\u0120from": 504, "\u0120ex": 505, "\u0120O": 506, "ld": 507, "\u0120[": 508, "oc": 509, ":\u010a": 510, "\u0120se": 511, "\u0120le": 512, "--------": 513, ".s": 514, "{\u010a": 515, "',": 516, "ant": 517, "\u0120at": 518, "ase": 519, ".c": 520, "\u0120ch": 521, "</": 522, "ave": 523, "ang": 524, "\u0120are": 525, "\u0120int": 526, "\u00e2\u0122\u013b": 527, "_t": 528, "ert": 529, "ial": 530, "act": 531, "}\u010a": 532, "ive": 533, "ode": 534, "ost": 535, "\u0120class": 536, "\u0120not": 537, "og": 538, "ord": 539, "alue": 540, "all": 541, "ff": 542, "();\u010a": 543, "ont": 544, "ime": 545, "are": 546, "\u0120U": 547, "\u0120pr": 548, "\u0120:": 549, "ies": 550, "ize": 551, "ure": 552, "\u0120by": 553, "ire": 554, "\u0120}\u010a\u010a": 555, ".p": 556, "\u0120sh": 557, "ice": 558, "ast": 559, "ption": 560, "tring": 561, "ok": 562, "__": 563, "cl": 564, "##": 565, "\u0120he": 566, "ard": 567, ").": 568, "\u0120@": 569, "iew": 570, "\u0109\u0109\u0109": 571, "\u0120was": 572, "ip": 573, "this": 574, "\u0120u": 575, "\u0120The": 576, "ide": 577, "ace": 578, "ib": 579, "ac": 580, "rou": 581, "\u0120we": 582, "ject": 583, "\u0120public": 584, "ak": 585, "ve": 586, "ath": 587, "oid": 588, "\u0120=>": 589, "ust": 590, "que": 591, "\u0120res": 592, "))": 593, "'s": 594, "\u0120k": 595, "ans": 596, "yst": 597, "unction": 598, "********": 599, "\u0120i": 600, "\u0120us": 601, "pp": 602, "one": 603, "ail": 604, "====": 605, "name": 606, "\u0120str": 607, "\u0120/": 608, "\u0120&": 609, "ach": 610, "div": 611, "ystem": 612, "ell": 613, "\u0120have": 614, "err": 615, "ould": 616, "ull": 617, "pon": 618, "\u0120J": 619, "_p": 620, "\u0120==": 621, "ign": 622, "St": 623, ".\u010a": 624, "\u0120pl": 625, ");\u010a\u010a": 626, "form": 627, "put": 628, "ount": 629, "}\u010a\u010a": 630, "dd": 631, "ite": 632, "\u0120get": 633, "rr": 634, "ome": 635, "\u0120\u00e2\u0122": 636, "aram": 637, "cc": 638, "\u0120*/": 639, "ER": 640, "In": 641, "les": 642, "_s": 643, "ong": 644, "ie": 645, "\u0120can": 646, "\u0120V": 647, "erv": 648, "pr": 649, "\u0120un": 650, "row": 651, "ber": 652, "\u0120do": 653, "ll": 654, "\u0120el": 655, "\u0120self": 656, "ated": 657, "ary": 658, "\u0120.": 659, "']": 660, "ud": 661, "\u0120en": 662, "\u0120Th": 663, "\u0120\u0120\u0120\u0120\u0120\u0120\u0120\u0120\u0120\u0120\u0120\u0120\u0120\u0120\u0120\u0120\u0120\u0120\u0120\u0120\u0120\u0120\u0120": 664, "te": 665, "_c": 666, "uct": 667, "\u0120ab": 668, "ork": 669, ".get": 670, "\u0120#": 671, "aw": 672, "ress": 673, "ob": 674, "Name": 675, "app": 676, "['": 677, "\u0120all": 678, "ory": 679, "ition": 680, "ance": 681, "ear": 682, "\u0120cont": 683, "vent": 684, "ia": 685, "\u0120will": 686, "IN": 687, "\u0120\u0120\u0120\u0120\u0120\u0120\u0120\u0120\u0120": 688, "return": 689, "\u0120</": 690, "data": 691, ")\u010a\u010a": 692, "Re": 693, "ple": 694, "ild": 695, "ther": 696, "\u0120your": 697, "\"\u010a": 698, "($": 699, "\u0120out": 700, "),": 701, "\u0120has": 702, "String": 703, "so": 704, "\u0120up": 705, "ax": 706, "\u0120def": 707, "\u0120bo": 708, "ge": 709, "alse": 710, "ON": 711, "per": 712, "ich": 713, "\u0120but": 714, "\u0120\u010a": 715, "\u0120_": 716, "_m": 717, "add": 718, "quest": 719, "odel": 720, "self": 721, "ery": 722, "ft": 723, "ens": 724, "////": 725, "ake": 726, ".C": 727, "\u0120go": 728, "\u0120function": 729, "\u0120K": 730, "ivate": 731, "\u0120im": 732, "\u0120const": 733, ".t": 734, "\u0120*/\u010a": 735, ");\u010d\u010a": 736, "\u0120void": 737, "\u0120set": 738, "\u0120System": 739, "cri": 740, "()\u010a": 741, "li": 742, "\u0109if": 743, ".m": 744, "ally": 745, "set": 746, "ep": 747, "\u00e2\u0122\u013bs": 748, "bo": 749, "def": 750, "',\u010a": 751, "\u0120me": 752, "\u0120!": 753, "atch": 754, "\">": 755, "\",\u010a": 756, "ec": 757, "\u0120In": 758, "ph": 759, "\u0120|": 760, "_f": 761, "\u0120var": 762, "ence": 763, "Id": 764, "ree": 765, "ink": 766, "lect": 767, "ug": 768, "eth": 769, "\u0120else": 770, "----------------": 771, "cont": 772, "\u0120so": 773, "atic": 774, "\u0120lo": 775, "pro": 776, "ton": 777, "ss": 778, "own": 779, "abel": 780, "oint": 781, "ous": 782, "eld": 783, "ST": 784, "The": 785, "\u0120\u0120\u0120\u0120\u0120\u0120\u0120\u0120\u0120\u0120\u0120\u0120\u0120\u0120\u0120\u0120\u0120\u0120\u0120\u0120\u0120\u0120\u0120\u0120\u0120\u0120\u0120\u0120\u0120\u0120\u0120\u0120": 786, "RE": 787, "\":": 788, "olor": 789, "tp": 790, "eg": 791, "key": 792, "ude": 793, "\u0120St": 794, "ound": 795, "\u0120ar": 796, "\");\u010a": 797, "ener": 798, "ser": 799, "bject": 800, "essage": 801, "fer": 802, "\u0120more": 803, "ations": 804, "ents": 805, "\u0120his": 806, "\u0120they": 807, ".S": 808, "\u0120Y": 809, "use": 810, "ne": 811, "ish": 812, "old": 813, "_d": 814, "io": 815, "ield": 816, "\u0120per": 817, "Cont": 818, "ings": 819, "####": 820, "\u0120data": 821, "\u0120sa": 822, "ef": 823, "fo": 824, "\u0120one": 825, "eng": 826, "\u0120dis": 827, "AT": 828, "\u0120name": 829, "\u0120true": 830, "val": 831, "led": 832, ".f": 833, "\u0120ne": 834, "\u0120end": 835, ".T": 836, "cre": 837, "ark": 838, "log": 839, "Ex": 840, "error": 841, "_id": 842, "urre": 843, "ange": 844, "\u0120null": 845, "rray": 846, "\u0120my": 847, "pan": 848, "ict": 849, "ator": 850, "View": 851, "List": 852, "\u0109return": 853, "\u00e2\u0122\u013f": 854, "\u0120pre": 855, "\u0120x": 856, "clude": 857, "arg": 858, "ov": 859, ".h": 860, "\u0120>": 861, "\u0120their": 862, "')": 863, "irst": 864, "ick": 865, "gh": 866, "LE": 867, "OR": 868, "\u0120private": 869, "tem": 870, "\u010d\u010a\u010d\u010a": 871, "user": 872, "\u0120)": 873, "com": 874, ".A": 875, "\";\u010a": 876, "\u0120id": 877, "read": 878, "\u0120who": 879, "_b": 880, "\">\u010a": 881, "\u0120time": 882, "\u0120man": 883, "ry": 884, "========": 885, "roup": 886, "rop": 887, "public": 888, "vel": 889, "umber": 890, "ble": 891, "\u0120which": 892, "****************": 893, "\u0120any": 894, "\u0120false": 895, "we": 896, "\u0120value": 897, "\u0120li": 898, "\")": 899, "nder": 900, "gr": 901, "\u0120no": 902, "param": 903, "fig": 904, ".com": 905, "\u0120app": 906, "_l": 907, "ions": 908, ".D": 909, "\u0120Ch": 910, "\u0120about": 911, "\u0120add": 912, "\u0120su": 913, "\u0120string": 914, "ID": 915, "\u0120over": 916, "string": 917, ".l": 918, "ource": 919, "_C": 920, "]\u010a": 921, "\u0120qu": 922, "\u0120String": 923, "ca": 924, "SE": 925, "\u0120ro": 926, "sh": 927, "ual": 928, "Type": 929, "son": 930, "new": 931, "ern": 932, "\u0120ag": 933, "AR": 934, "];\u010a": 935, "].": 936, "\u0120?": 937, "ical": 938, "\u0120des": 939, "uth": 940, "ix": 941, "ays": 942, "\u0120type": 943, "'t": 944, "ault": 945, "\u0120inter": 946, "var": 947, ".b": 948, "\u0120part": 949, ".d": 950, "urrent": 951, "IT": 952, "EN": 953, "enc": 954, "(f": 955, "ra": 956, "value": 957, "cho": 958, "utton": 959, "ose": 960, "\u0120!=": 961, "ater": 962, "\u00c3\u00a9": 963, "reate": 964, "oll": 965, "pos": 966, "yle": 967, "ng": 968, "AL": 969, "using": 970, "ames": 971, "\u0120{\u010d\u010a": 972, "ates": 973, "ely": 974, "\u0120work": 975, "\u0120em": 976, "inal": 977, "\u0120sp": 978, "\u0120when": 979, ".set": 980, "\u0120\u0120\u0120\u0120\u0120\u0120": 981, "):\u010a": 982, "to": 983, "quire": 984, "indow": 985, "lement": 986, "pect": 987, "ash": 988, "[i": 989, "\u0120use": 990, ".F": 991, "pec": 992, "\u0120ad": 993, "ove": 994, "ception": 995, "ength": 996, "include": 997, "ader": 998, "\u0120\u0120\u0120\u0120\u0120\u0120\u0120\u0120\u0120\u0120\u0120\u0120\u0120\u0120\u0120\u0120\u0120\u0120\u0120\u0120\u0120\u0120\u0120\u0120\u0120\u0120\u0120": 999, "atus": 1000, "Th": 1001, "itle": 1002, "rit": 1003, "void": 1004, "().": 1005, "(\u010a": 1006, "\u0120off": 1007, "\u0120other": 1008, "\u0120&&": 1009, "';\u010a": 1010, "ms": 1011, "\u0120been": 1012, "\u0120te": 1013, "ml": 1014, "co": 1015, "nc": 1016, "ervice": 1017, "\u0120%": 1018, "**\u010a": 1019, "ann": 1020, "ade": 1021, "\u010a\u010a\u010a\u010a": 1022, "lock": 1023, "const": 1024, "ponse": 1025, "\u0120sup": 1026, "++": 1027, "date": 1028, "\u0120acc": 1029, "\u0120had": 1030, "\u0120bu": 1031, "\u0120Re": 1032, "\u0120were": 1033, "\u0120file": 1034, "\u0120would": 1035, "\u0120\u00e2\u0122\u013e": 1036, "ven": 1037, "iss": 1038, "\u0120our": 1039, "class": 1040, "raw": 1041, "\u0120year": 1042, "Data": 1043, "\u0120val": 1044, "\u0120some": 1045, "fter": 1046, "ys": 1047, "\u0120///": 1048, "round": 1049, "view": 1050, "\u0120pe": 1051, "\u0120there": 1052, "\u0120said": 1053, "du": 1054, "of": 1055, "line": 1056, "/*": 1057, "duct": 1058, "\u0120her": 1059, "\u0120\u0120\u0120\u0120\u0120\u0120\u0120\u0120\u0120\u0120\u0120\u0120\u0120": 1060, "Res": 1061, "\u0120co": 1062, "\u0120comm": 1063, "ise": 1064, "min": 1065, "\u0120\u0120\u0120\u0120\u010a": 1066, "#include": 1067, "ethod": 1068, ".P": 1069, "ute": 1070, "\u0120ass": 1071, "Int": 1072, "ask": 1073, "loc": 1074, "\u0120like": 1075, "ody": 1076, "\u0120let": 1077, "load": 1078, "\u0120am": 1079, "rol": 1080, "\u0120gr": 1081, "yp": 1082, "\u0120also": 1083, "\u0120It": 1084, "url": 1085, "ific": 1086, "ors": 1087, "_P": 1088, "_n": 1089, "igh": 1090, "\u0120than": 1091, "Com": 1092, "AN": 1093, "UL": 1094, "ating": 1095, "\u0120This": 1096, "ref": 1097, "_S": 1098, "\u0120static": 1099, "roll": 1100, "\u0120just": 1101, "\u0120result": 1102, "ian": 1103, "idth": 1104, "\u0120them": 1105, "));\u010a": 1106, "der": 1107, "reak": 1108, "Con": 1109, "://": 1110, "ule": 1111, "...": 1112, "arch": 1113, "ement": 1114, "\u0120<<": 1115, "ush": 1116, "ense": 1117, "arr": 1118, "\u0120into": 1119, "cess": 1120, "amp": 1121, "ied": 1122, "ument": 1123, "\u0120\\": 1124, "],": 1125, "wo": 1126, "als": 1127, "\u0120what": 1128, "anc": 1129, "Value": 1130, "='": 1131, "olum": 1132, "\u0120pos": 1133, "ages": 1134, "ayer": 1135, "\u0120sc": 1136, "ues": 1137, "\")\u010a": 1138, "_T": 1139, "\u0120list": 1140, "(s": 1141, "\u0120case": 1142, "Ch": 1143, "\u0109\u0109\u0109\u0109\u0109": 1144, "////////": 1145, "ponent": 1146, "\u0120z": 1147, "\u0120kn": 1148, "let": 1149, "DE": 1150, "red": 1151, "\u0120fe": 1152, "\u0120},\u010a": 1153, "\u0120,": 1154, "(t": 1155, "\u0120first": 1156, "');\u010a": 1157, "word": 1158, "\u0120import": 1159, "\u0120act": 1160, "\u0120char": 1161, "CT": 1162, "\u0120Tr": 1163, "ople": 1164, "={": 1165, "\u0109f": 1166, "ient": 1167, "cent": 1168, ".j": 1169, "lection": 1170, "))\u010a": 1171, "\u0120only": 1172, "\u0120print": 1173, "mer": 1174, ".W": 1175, "ock": 1176, "\u0120--": 1177, "Text": 1178, "\u0120op": 1179, "ank": 1180, "\u0120its": 1181, "\u0120back": 1182, "[\"": 1183, "\u0120need": 1184, "\u0120cl": 1185, "\u0120sub": 1186, "\u0120la": 1187, "((": 1188, ".\"": 1189, "Object": 1190, "\u0120start": 1191, "file": 1192, "(self": 1193, "ner": 1194, "ey": 1195, "\u0120user": 1196, "\u0120ent": 1197, "\u0120Com": 1198, "its": 1199, "\u0120Con": 1200, "ouble": 1201, "ower": 1202, "item": 1203, "very": 1204, "\u0120We": 1205, "lick": 1206, "\u0120Q": 1207, "php": 1208, "ttp": 1209, "':": 1210, "ics": 1211, "\u0120under": 1212, "\u0120*\u010a": 1213, ".L": 1214, ");": 1215, "ices": 1216, "\u0120reg": 1217, ")\u010d\u010a": 1218, "\u0109public": 1219, "SS": 1220, "\u0120then": 1221, "reat": 1222, "ious": 1223, ".G": 1224, "ek": 1225, "irect": 1226, "heck": 1227, "cript": 1228, "ning": 1229, "\u0120Un": 1230, "\u0120may": 1231, "\u0120Wh": 1232, "Bo": 1233, "Item": 1234, "struct": 1235, ".st": 1236, "ream": 1237, "ible": 1238, "loat": 1239, "\u0120org": 1240, "und": 1241, "sum": 1242, "_in": 1243, "../": 1244, "_M": 1245, "\u0120how": 1246, "rite": 1247, "'\u010a": 1248, "To": 1249, "ww": 1250, "\u0120people": 1251, "index": 1252, ".n": 1253, "http": 1254, "(m": 1255, "ector": 1256, "\u0120ind": 1257, "\u0120jav": 1258, "],\u010a": 1259, "\u0120He": 1260, "_st": 1261, "ful": 1262, "ole": 1263, "){\u010a": 1264, "\u0120should": 1265, "opy": 1266, "elp": 1267, "ier": 1268, "_name": 1269, "erson": 1270, "ION": 1271, "ote": 1272, "\u0120test": 1273, "\u0120bet": 1274, "rror": 1275, "ular": 1276, "\u00e3\u0122": 1277, "\u0120\u00d0": 1278, "bs": 1279, "ting": 1280, "\u0120make": 1281, "Tr": 1282, "\u0120after": 1283, "arget": 1284, "RO": 1285, "olumn": 1286, "rc": 1287, "_re": 1288, "define": 1289, "\u0120right": 1290, "right": 1291, "day": 1292, "\u0120long": 1293, "[]": 1294, "(p": 1295, "td": 1296, "cond": 1297, "\u0120Pro": 1298, "\u0120rem": 1299, "ptions": 1300, "vid": 1301, ".g": 1302, "\u0120ext": 1303, "\u0120__": 1304, "')\u010a": 1305, "pace": 1306, "mp": 1307, "\u0120min": 1308, "stance": 1309, "air": 1310, "action": 1311, "wh": 1312, "type": 1313, "util": 1314, "ait": 1315, "<?": 1316, "IC": 1317, "text": 1318, "\u0120ph": 1319, "\u0120fl": 1320, ".M": 1321, "ccess": 1322, "br": 1323, "fore": 1324, "ersion": 1325, "),\u010a": 1326, ".re": 1327, "ateg": 1328, "\u0120loc": 1329, "ins": 1330, "-s": 1331, "trib": 1332, "\u0120Int": 1333, "\u0120array": 1334, ",\"": 1335, "Pro": 1336, "(c": 1337, "ession": 1338, ">\u010a\u010a": 1339, "\u0120she": 1340, "\"]": 1341, "aph": 1342, "\u0120exp": 1343, "erty": 1344, "\u0120Se": 1345, "\u0120par": 1346, "unc": 1347, "ET": 1348, "\u0120read": 1349, "print": 1350, "\u0120rel": 1351, "\u0120form": 1352, "\u0120dr": 1353, "Exception": 1354, "input": 1355, "\u0120trans": 1356, "########": 1357, "order": 1358, "By": 1359, "\u0120aw": 1360, "ities": 1361, "uff": 1362, "play": 1363, ".add": 1364, "\u0120\u00e2\u0122\u0135": 1365, "\u0120want": 1366, "\u0120comp": 1367, "ments": 1368, "\u0120||": 1369, "az": 1370, "be": 1371, "\u0120number": 1372, "\u0120require": 1373, "\u0120Ex": 1374, "\u0120col": 1375, "\u0120key": 1376, "ember": 1377, "\u0120two": 1378, "\u0120size": 1379, "\u0120where": 1380, "UT": 1381, "result": 1382, "\u0120\u0120\u0120\u0120\u0120\u0120\u0120\u0120\u0120\u0120\u0120\u0120\u0120\u0120\u0120\u0120\u0120\u0120\u0120\u0120\u0120\u0120\u0120\u0120\u0120\u0120\u0120\u0120\u0120\u0120\u0120": 1383, "ough": 1384, "orld": 1385, "ood": 1386, "uch": 1387, "ative": 1388, "ger": 1389, "arent": 1390, "\u0120/*": 1391, "\u0120arg": 1392, "\u0120while": 1393, "(this": 1394, "\u0120rec": 1395, "\u0120dif": 1396, "State": 1397, "\u0120spec": 1398, "ride": 1399, "_F": 1400, "\u0120look": 1401, "AM": 1402, "ility": 1403, "eter": 1404, "\u00e2\u0122\u013bt": 1405, "\u010a\u010a\u010a": 1406, "ayout": 1407, "--------------------------------": 1408, "ager": 1409, "\u0120could": 1410, "\u0120br": 1411, "ends": 1412, "ures": 1413, "\u0120know": 1414, "ets": 1415, "\u0120If": 1416, "\u0120Sh": 1417, ".w": 1418, "back": 1419, "\u0120ser": 1420, "\u0120+=": 1421, "\u0120fr": 1422, "());\u010a": 1423, "\u0120hand": 1424, "Ind": 1425, "ULL": 1426, "Im": 1427, "();\u010a\u010a": 1428, "\u0120most": 1429, "\u0120try": 1430, "\u0120now": 1431, "rough": 1432, ">\u010d\u010a": 1433, "ackage": 1434, "\u0120him": 1435, "._": 1436, "ify": 1437, "\u0120break": 1438, "\u0120);\u010a": 1439, "ren": 1440, "#define": 1441, "itt": 1442, "\u0120ap": 1443, "\u0109c": 1444, "(n": 1445, "\u0120You": 1446, ":\u010a\u010a": 1447, "-m": 1448, "\u0120every": 1449, "ustom": 1450, "lient": 1451, "ocument": 1452, "cription": 1453, "Error": 1454, "-b": 1455, "\u00d0\u00be": 1456, "][": 1457, "trans": 1458, "\u0120point": 1459, "\u0120std": 1460, "\u0120fil": 1461, "Time": 1462, "\u0120mod": 1463, "\u0120->": 1464, "\u0120error": 1465, "ah": 1466, "\u0120text": 1467, "roller": 1468, "lose": 1469, "ql": 1470, "\u0120pol": 1471, "></": 1472, "\u0120show": 1473, "User": 1474, "ased": 1475, "\u0120{\u010a\u010a": 1476, "\u0120find": 1477, "\u00d0\u00b0": 1478, "ED": 1479, "span": 1480, "enu": 1481, "\u0120current": 1482, "\u0120used": 1483, "cept": 1484, "clud": 1485, "\u0120play": 1486, "\u0120log": 1487, "ution": 1488, "fl": 1489, "\u0120see": 1490, "indows": 1491, "\u0120help": 1492, "\u0120these": 1493, "\u0120pass": 1494, "\u0120down": 1495, "\u0120even": 1496, "ason": 1497, "uild": 1498, "from": 1499, "(d": 1500, "\u0120bl": 1501, "label": 1502, "else": 1503, "\u00d0\u00b5": 1504, "\u0120(!": 1505, "ized": 1506, "(),": 1507, "\u0120ob": 1508, "\u0120item": 1509, "ump": 1510, "UR": 1511, "orn": 1512, "\u0120don": 1513, "Se": 1514, "man": 1515, "ample": 1516, "tn": 1517, "================": 1518, "He": 1519, "gram": 1520, "\u0120did": 1521, "wn": 1522, "_h": 1523, "iver": 1524, "\u0120sm": 1525, "\u0120through": 1526, "\u0120An": 1527, "che": 1528, "\u0120inv": 1529, "ouse": 1530, "\u0120es": 1531, "\u0120New": 1532, "export": 1533, "mary": 1534, "uto": 1535, "ler": 1536, "\u0120last": 1537, "\u0120event": 1538, "try": 1539, "\u00ef\u00bc": 1540, "ily": 1541, "igned": 1542, "ines": 1543, "ollow": 1544, "icense": 1545, "sole": 1546, "lear": 1547, "(int": 1548, "\u0120again": 1549, "\u0120high": 1550, "html": 1551, "Index": 1552, "uthor": 1553, "\u0120/**\u010a": 1554, "\u0120line": 1555, "Event": 1556, "_D": 1557, "\u0120does": 1558, "itial": 1559, "\u0120cr": 1560, "ars": 1561, "\u0120tem": 1562, "cause": 1563, "face": 1564, "\u0120`": 1565, "_A": 1566, "Button": 1567, "ature": 1568, "ected": 1569, "ES": 1570, "ister": 1571, "\u0109\u010a": 1572, "\u0120before": 1573, "ale": 1574, "other": 1575, "\u0120because": 1576, "roid": 1577, "\u0120ed": 1578, "ik": 1579, "reg": 1580, "\u0120De": 1581, "\u0120dist": 1582, "},\u010a": 1583, "\u0120state": 1584, "\u0120cons": 1585, "rint": 1586, "att": 1587, "\u0120here": 1588, "ined": 1589, "\u0120final": 1590, "\u0120\"\"": 1591, "Key": 1592, "LO": 1593, "\u0120del": 1594, "pty": 1595, "thing": 1596, "\u0120And": 1597, "\u0120run": 1598, "\u0120X": 1599, "ym": 1600, ".app": 1601, "\u0120very": 1602, "ces": 1603, "_N": 1604, "ared": 1605, "ward": 1606, "list": 1607, "ited": 1608, "olog": 1609, "itch": 1610, "Box": 1611, "ife": 1612, "\u0120ac": 1613, "\u0120model": 1614, "\u0120mon": 1615, "\u0120way": 1616, "lete": 1617, "\u0120call": 1618, "\u0120att": 1619, "\u0120cal": 1620, "vert": 1621, "\u0120dec": 1622, "lease": 1623, "oun": 1624, "\u0120});\u010a": 1625, "fr": 1626, "formation": 1627, "etail": 1628, "\u0120num": 1629, "aj": 1630, "query": 1631, "\u0120well": 1632, "\u0120object": 1633, "\u0120As": 1634, "\u0120years": 1635, "Color": 1636, "IS": 1637, "\u0120default": 1638, "Wh": 1639, "\u0120ins": 1640, "aint": 1641, "\u0120java": 1642, "\u0120sim": 1643, "\u0120Ar": 1644, "mon": 1645, "til": 1646, "();\u010d\u010a": 1647, "):": 1648, "Set": 1649, "atter": 1650, "\u0120view": 1651, "\u0120pres": 1652, "array": 1653, "We": 1654, "At": 1655, "\u0120bel": 1656, "\u0120many": 1657, "Man": 1658, "ender": 1659, "\u0120being": 1660, "\u0120good": 1661, "\u0109\u0109\u0109\u0109\u0109\u0109": 1662, "ational": 1663, "ware": 1664, ".log": 1665, "{\u010d\u010a": 1666, "\u0120using": 1667, "_B": 1668, "\u0120:=": 1669, "_w": 1670, "ists": 1671, "lish": 1672, "\u0120stud": 1673, "\u0120Al": 1674, "\u0120gu": 1675, "config": 1676, "uring": 1677, "time": 1678, "oken": 1679, "amespace": 1680, "\u0120request": 1681, "\u0120child": 1682, "\u0120\u00c3": 1683, "lob": 1684, "\u0120param": 1685, "\u0120}\u010d\u010a": 1686, "\u0120echo": 1687, "function": 1688, "********************************": 1689, "ps": 1690, "Element": 1691, "alk": 1692, "lication": 1693, "by": 1694, "Size": 1695, "rawing": 1696, "\u0120person": 1697, "\u0120\u0120\u0120\u0120\u0120\u0120\u0120\u0120\u0120\u0120\u0120\u0120\u0120\u0120\u0120\u0120\u0120": 1698, "\\n": 1699, "object": 1700, "ince": 1701, "En": 1702, "File": 1703, "uf": 1704, "ffect": 1705, "AC": 1706, "\u0120style": 1707, "summary": 1708, "\u0120que": 1709, "_r": 1710, "\u0120($": 1711, "Model": 1712, "ident": 1713, "\u0120method": 1714, "IL": 1715, "ott": 1716, "less": 1717, "ING": 1718, "\u0120()": 1719, "\u0120expect": 1720, "ync": 1721, "package": 1722, "urs": 1723, "\u0120prot": 1724, "./": 1725, "pre": 1726, "\u0120)\u010a": 1727, "ma": 1728, "\u0120sur": 1729, "\u0120found": 1730, "Info": 1731, "par": 1732, "imes": 1733, ".e": 1734, "ains": 1735, "\u0120post": 1736, "-d": 1737, "olean": 1738, "\u0120sl": 1739, "PE": 1740, "\u0120such": 1741, "select": 1742, "ainer": 1743, "\u0120think": 1744, "\u0120differ": 1745, ".r": 1746, "/**\u010a": 1747, "FF": 1748, "ool": 1749, "plate": 1750, "qual": 1751, "\u0120For": 1752, "\u0120much": 1753, "uc": 1754, "(new": 1755, "odule": 1756, "\u0120som": 1757, "\u0120http": 1758, "\u0120List": 1759, "\u0120count": 1760, "\u0120inst": 1761, "char": 1762, "mit": 1763, ".id": 1764, "aking": 1765, "\u0120gener": 1766, "px": 1767, "vice": 1768, "_data": 1769, "\u0120NULL": 1770, "}\u010d\u010a": 1771, "idd": 1772, "\u00e3\u0122\u0124": 1773, "\u0120med": 1774, "org": 1775, "ider": 1776, "ache": 1777, "work": 1778, "\u0120check": 1779, "ween": 1780, "\u0120((": 1781, "the": 1782, "ants": 1783, "><": 1784, ".B": 1785, "-c": 1786, "\u0120open": 1787, "\u0120est": 1788, "\u0120\u0120\u0120\u0120\u0120\u0120\u0120\u0120\u010a": 1789, "\u0120next": 1790, "IM": 1791, "\u00d1\u0124": 1792, "OT": 1793, "\u00c3\u00b3": 1794, "\u0120follow": 1795, "content": 1796, "\u0120\u0120\u0120\u0120\u0120\u0120\u0120\u0120\u0120\u0120\u0120\u0120": 1797, "\u0120includ": 1798, "HE": 1799, "\u0120Res": 1800, "\u0120href": 1801, "\u00d0\u00b8": 1802, "\u0120car": 1803, "ypes": 1804, "image": 1805, "Un": 1806, "\u0120bool": 1807, "AD": 1808, "\u0120game": 1809, ".Form": 1810, "rows": 1811, "*/": 1812, "velop": 1813, ".Drawing": 1814, "\u0120path": 1815, "ision": 1816, "\u0120each": 1817, "\u0120Pl": 1818, "_type": 1819, "Path": 1820, "nection": 1821, "\u0120av": 1822, "').": 1823, "\u0120support": 1824, "ENT": 1825, "rem": 1826, "\").": 1827, "\u0120own": 1828, "\u0120cor": 1829, "count": 1830, "miss": 1831, "ually": 1832, "\u0120mem": 1833, "std": 1834, "ience": 1835, "search": 1836, "\"\u010a\u010a": 1837, "Form": 1838, "\u0120sex": 1839, "ename": 1840, "\u0120sign": 1841, "\u0120et": 1842, "\u0120\u0120\u0120\u0120\u0120\u0120\u0120\u0120\u0120\u0120": 1843, "','": 1844, "\u0120App": 1845, "\u0120those": 1846, "off": 1847, "\u0120err": 1848, "\u0120system": 1849, "\u0120best": 1850, "code": 1851, "\u0120same": 1852, "\u0120di": 1853, "uss": 1854, "\u0120create": 1855, "ather": 1856, "Array": 1857, ".in": 1858, "fe": 1859, "Service": 1860, "UN": 1861, "ats": 1862, "\u0120Z": 1863, "alth": 1864, "\u0120made": 1865, "true": 1866, "AB": 1867, "\u0120mark": 1868, "rid": 1869, "ified": 1870, ",\u010d\u010a": 1871, "yn": 1872, "press": 1873, "\u0120group": 1874, "\u0120fin": 1875, "\u0120License": 1876, "Field": 1877, "eger": 1878, "\u0120world": 1879, "iness": 1880, "ty": 1881, "\u0120process": 1882, "(b": 1883, "\u0120cre": 1884, "arn": 1885, "ives": 1886, "\u0120main": 1887, "ideo": 1888, "_g": 1889, "AG": 1890, "valid": 1891, "img": 1892, "PI": 1893, "\u0120color": 1894, "\u0120report": 1895, "\u0120take": 1896, "rib": 1897, "OM": 1898, "\u0120day": 1899, "Request": 1900, "\u0120sk": 1901, "bers": 1902, "\u0109s": 1903, ".Add": 1904, "oot": 1905, "Image": 1906, "\u0120comple": 1907, "ollection": 1908, "\u0120top": 1909, "\u0120free": 1910, "AS": 1911, "De": 1912, "\u0120On": 1913, "IG": 1914, "eta": 1915, "Date": 1916, "\u0120action": 1917, "Over": 1918, "itor": 1919, "\u0120\u0120\u0120\u0120\u0120\u0120\u0120\u0120\u0120\u0120\u0120\u0120\u0120\u0120\u0120\u0120\u0120\u0120\u0120\u0120\u0120\u0120\u0120\u0120\u0120\u0120\u0120\u0120\u0120\u0120\u0120\u0120\u0120\u0120\u0120": 1920, "not": 1921, "\u0120index": 1922, "her": 1923, "icon": 1924, "On": 1925, ";\u010d\u010a\u010d\u010a": 1926, "ivity": 1927, "mand": 1928, ".Windows": 1929, "OL": 1930, "\u0120real": 1931, "\u0120max": 1932, "land": 1933, "....": 1934, "raph": 1935, "\u0120build": 1936, "leg": 1937, "assword": 1938, "?\u010a\u010a": 1939, "\u00e2\u0122\u00a6": 1940, "ook": 1941, "uck": 1942, "\u0120message": 1943, "test": 1944, "ivers": 1945, "\u0120input": 1946, "\u0120art": 1947, "\u0120between": 1948, "Get": 1949, "enter": 1950, "ground": 1951, "ene": 1952, "\u00c3\u00a1": 1953, ".length": 1954, "Node": 1955, "(i": 1956, "Class": 1957, "for": 1958, "\u0120\u00e2\u0122\u0136": 1959, "ten": 1960, "oin": 1961, "\u0120ke": 1962, "ui": 1963, "\u0120IN": 1964, "\u0120table": 1965, "sub": 1966, "\u0120Le": 1967, "\u0120head": 1968, "\u0120must": 1969, "////////////////": 1970, ".util": 1971, "Context": 1972, "\u0120order": 1973, "\u0120mov": 1974, "over": 1975, "\u0120contin": 1976, "\u0120say": 1977, "static": 1978, ".Text": 1979, "\u0120className": 1980, "pany": 1981, "\u0120ter": 1982, "head": 1983, "rg": 1984, "\u0120product": 1985, "This": 1986, ".\u00e2\u0122\u013f": 1987, "\u0120But": 1988, "loy": 1989, "\u0120double": 1990, "sg": 1991, "\u0120place": 1992, ".x": 1993, "message": 1994, "\u0120information": 1995, "private": 1996, "\u0120oper": 1997, "ced": 1998, "db": 1999, "\"></": 2000, "Param": 2001, "icle": 2002, "\u0120week": 2003, "\u0120prop": 2004, "table": 2005, "idget": 2006, "place": 2007, "Prop": 2008, "\u0120All": 2009, "els": 2010, "box": 2011, ".\u010a\u010a\u010a\u010a": 2012, ".R": 2013, "\u0120To": 2014, "iter": 2015, "Sh": 2016, "uration": 2017, "older": 2018, "_list": 2019, "come": 2020, "\u0120sw": 2021, "ization": 2022, "\u0109for": 2023, "bl": 2024, "\u0120program": 2025, "(e": 2026, "ape": 2027, "check": 2028, ".Forms": 2029, "\u0120und": 2030, "ategory": 2031, "ags": 2032, "\u0120response": 2033, "US": 2034, "request": 2035, "\u0120struct": 2036, "escription": 2037, "\u0120code": 2038, "_H": 2039, "uffer": 2040, "\u0120without": 2041, "lobal": 2042, "Manager": 2043, "ilter": 2044, "PO": 2045, "\u0109this": 2046, "option": 2047, "\u0120sol": 2048, "\u0120===": 2049, "akes": 2050, "Controller": 2051, "Message": 2052, "\u0120ref": 2053, "ever": 2054, "\u0120So": 2055, "aining": 2056, ".append": 2057, "\u0120still": 2058, "\u0120provid": 2059, "\u0120assert": 2060, "med": 2061, "\u0120cap": 2062, "usiness": 2063, "\u0120rep": 2064, "tings": 2065, "ved": 2066, ".N": 2067, "api": 2068, "OD": 2069, "\u0120field": 2070, "iven": 2071, "oto": 2072, "\u00e2\u0122\u013e": 2073, "col": 2074, "(x": 2075, "ght": 2076, "Result": 2077, "Code": 2078, ".is": 2079, "link": 2080, "\u0120cour": 2081, "An": 2082, "\u0120team": 2083, "\u0109int": 2084, "ift": 2085, "\u0120second": 2086, "\u0120going": 2087, "\u0120range": 2088, "_E": 2089, "ness": 2090, "\u0120fam": 2091, "\u0120nil": 2092, "\u0120Cont": 2093, "ailable": 2094, "utes": 2095, "atab": 2096, "\u0120fact": 2097, "\u0120vis": 2098, "(&": 2099, "\u0120AN": 2100, "Al": 2101, "title": 2102, "\u0120android": 2103, "CE": 2104, "\\\"": 2105, "irt": 2106, "\u0120writ": 2107, "\u00d0\u00bd": 2108, "\u0109m": 2109, "ftware": 2110, "ond": 2111, "\u0120ret": 2112, "osition": 2113, "\u0120home": 2114, "\u0120left": 2115, "args": 2116, "meric": 2117, "\u0120direct": 2118, "oci": 2119, "Pl": 2120, "As": 2121, "ret": 2122, "ado": 2123, "Of": 2124, "chn": 2125, "\u0120Get": 2126, "ee": 2127, "ross": 2128, "();": 2129, "____": 2130, ".ph": 2131, "It": 2132, "oute": 2133, "\u0120exper": 2134, "chool": 2135, "www": 2136, "},": 2137, "\u0120allow": 2138, "\u0120\u00c2": 2139, "())": 2140, "size": 2141, "ism": 2142, "ai": 2143, "tract": 2144, "ane": 2145, "...\u010a\u010a": 2146, "context": 2147, "\u0120beg": 2148, "CH": 2149, "\u0120page": 2150, "hip": 2151, "no": 2152, "core": 2153, "sp": 2154, "\u0120different": 2155, "iable": 2156, "\u0120Me": 2157, "_IN": 2158, "button": 2159, "\u0120Is": 2160, "ervices": 2161, "\u0120ca": 2162, "\u0120around": 2163, "App": 2164, "ration": 2165, "\u0120rece": 2166, "\u0120really": 2167, "\u0120image": 2168, "\u0120target": 2169, "\u0120dep": 2170, "opyright": 2171, "tra": 2172, "ingle": 2173, "ital": 2174, "Layout": 2175, "\u0120both": 2176, "Override": 2177, "arm": 2178, "=>": 2179, "aterial": 2180, "iled": 2181, "\u0120put": 2182, "Qu": 2183, "\u00d1\u0122": 2184, "ung": 2185, "map": 2186, "\u0109\u0109\u0109\u0109\u0109\u0109\u0109\u0109": 2187, "\u0120level": 2188, "Component": 2189, "book": 2190, "creen": 2191, "_RE": 2192, "\u0120config": 2193, "\u00e3\u0123": 2194, "Or": 2195, ".data": 2196, "\u0120document": 2197, "\",\"": 2198, "tribute": 2199, "ux": 2200, "Log": 2201, "ference": 2202, "post": 2203, "_e": 2204, "\u0120local": 2205, "andom": 2206, "assert": 2207, "Val": 2208, "lected": 2209, "ina": 2210, "atabase": 2211, "Add": 2212, "\u0120content": 2213, ".print": 2214, "signed": 2215, "ric": 2216, ".\"\u010a\u010a": 2217, "\u0120fa": 2218, "!\u010a\u010a": 2219, "-f": 2220, "ived": 2221, "\u0120quest": 2222, ".ex": 2223, "\u0120float": 2224, "\u0120develop": 2225, "\u00d0\u00be\u00d0": 2226, "Map": 2227, "ading": 2228, "\u0120poss": 2229, "UE": 2230, "namespace": 2231, "_O": 2232, "\u0109b": 2233, ".Get": 2234, ">(": 2235, "json": 2236, "etails": 2237, "\u0120too": 2238, "\u0120extends": 2239, "\u0120None": 2240, "\u0120fore": 2241, "(String": 2242, "format": 2243, "\u0120great": 2244, "inter": 2245, "cale": 2246, "\u00d1\u0123": 2247, "ron": 2248, "iving": 2249, "Ent": 2250, "ency": 2251, "xt": 2252, "oy": 2253, "\u0120month": 2254, "\u0120happ": 2255, "\u0120super": 2256, "bar": 2257, "default": 2258, "_de": 2259, "ords": 2260, "ln": 2261, "({\u010a": 2262, "\u0120Ind": 2263, "ases": 2264, "\u0120title": 2265, "\u0120context": 2266, "oh": 2267, "-p": 2268, "Em": 2269, "\u0120met": 2270, "Test": 2271, "\u0120life": 2272, "_v": 2273, "\u0120US": 2274, "UI": 2275, "ocation": 2276, "md": 2277, "\u0120[\u010a": 2278, "\u0120]": 2279, "sw": 2280, "\u0120incre": 2281, "script": 2282, "ential": 2283, "ways": 2284, ".de": 2285, "\u0120src": 2286, "\u0120catch": 2287, "\u0120Americ": 2288, "//\u010a": 2289, "\u0120\u0120\u0120\u0120\u0120\u0120\u0120\u0120\u0120\u0120\u0120\u0120\u0120\u0120": 2290, "\u0120pay": 2291, "plit": 2292, "\u00e2\u0122\u0136": 2293, "\u0120coun": 2294, "obj": 2295, ".php": 2296, "\u0120change": 2297, "ething": 2298, "'re": 2299, "aster": 2300, "los": 2301, "lation": 2302, "\u0120\u0120\u010a": 2303, "Le": 2304, "\u00c3\u00a4": 2305, "({": 2306, "ready": 2307, "\u0120No": 2308, "\u0120position": 2309, "\u0120old": 2310, "\u0120book": 2311, "abled": 2312, "bug": 2313, "Hand": 2314, "};\u010a\u010a": 2315, "isplay": 2316, "aving": 2317, "\u0120gover": 2318, "\u0120version": 2319, "System": 2320, "nect": 2321, "response": 2322, "Style": 2323, "Up": 2324, "angu": 2325, "\u0120three": 2326, "init": 2327, "ero": 2328, "\u0120law": 2329, "endif": 2330, "\u0120base": 2331, "email": 2332, "(l": 2333, "_V": 2334, "\u0120conf": 2335, "ATE": 2336, "\u0120during": 2337, "tes": 2338, "\u0120console": 2339, "\u0120Pr": 2340, "\u0120spe": 2341, "ves": 2342, "path": 2343, "ialog": 2344, "dition": 2345, "_to": 2346, "ards": 2347, "\u0120against": 2348, "etwork": 2349, "\u0120Ph": 2350, "_L": 2351, "cur": 2352, "imit": 2353, "With": 2354, "\u0120power": 2355, "ium": 2356, "';\u010a\u010a": 2357, "\u0120wom": 2358, "left": 2359, "ources": 2360, "atri": 2361, "\u0120Im": 2362, "\u0120Man": 2363, "orth": 2364, "${": 2365, "quals": 2366, "ese": 2367, "_size": 2368, "\u0120iss": 2369, "otal": 2370, "-g": 2371, "ique": 2372, "rame": 2373, "\u0120width": 2374, "erg": 2375, ")(": 2376, "ittle": 2377, "TR": 2378, "\u0120They": 2379, "ences": 2380, "rl": 2381, "ons": 2382, "\u0120label": 2383, ".y": 2384, "-t": 2385, "update": 2386, "anel": 2387, "sc": 2388, ".to": 2389, "\u0120project": 2390, "\u00c3\u00bc": 2391, "\u0120element": 2392, "\u0120success": 2393, "\u0109\u0109\u010a": 2394, ".sh": 2395, "ram": 2396, "ched": 2397, "())\u010a": 2398, "\u0120(\u010a": 2399, "\u0120date": 2400, "\u0120tot": 2401, "_ST": 2402, "All": 2403, "ification": 2404, "\u0109var": 2405, "\u0120tri": 2406, "chem": 2407, "my": 2408, "\u0120big": 2409, "\u0120Ad": 2410, "\u0120At": 2411, "ots": 2412, "num": 2413, "Act": 2414, "\u0120map": 2415, "era": 2416, "cope": 2417, ".$": 2418, ",\u00e2\u0122\u013f": 2419, "\u0120pop": 2420, "\u0120few": 2421, "\u0120len": 2422, "uid": 2423, "eters": 2424, "ules": 2425, "\u00c3\u0143": 2426, "source": 2427, "https": 2428, "\u0120dem": 2429, "\u0120ear": 2430, "################": 2431, "\u0120match": 2432, "ories": 2433, "aces": 2434, "\u0120Cl": 2435, "\u0120node": 2436, "irc": 2437, "local": 2438, "unity": 2439, "};\u010a": 2440, "\u0120another": 2441, "<<": 2442, "ogle": 2443, "\u0120sit": 2444, "ework": 2445, "TE": 2446, ".I": 2447, "NS": 2448, "ology": 2449, "ought": 2450, ".Cont": 2451, ">>": 2452, "\u0120care": 2453, "state": 2454, "\u0109private": 2455, "\u0120effect": 2456, "++)": 2457, "_file": 2458, "ending": 2459, "Line": 2460, "For": 2461, "ior": 2462, "\u0120Sc": 2463, "\u0120fun": 2464, ".Size": 2465, "\u0109else": 2466, "])": 2467, "start": 2468, "vious": 2469, "\u0120},": 2470, "ours": 2471, "\u0120leg": 2472, "\u0120service": 2473, "\u0120since": 2474, "iron": 2475, "Label": 2476, "\u0120non": 2477, "\u0120los": 2478, "iction": 2479, "\u0120full": 2480, "acter": 2481, "board": 2482, "gress": 2483, "\u0120turn": 2484, "ither": 2485, ".size": 2486, "\u0120body": 2487, "resh": 2488, "eturn": 2489, "(_": 2490, "yles": 2491, "ormal": 2492, "pi": 2493, "\u0120something": 2494, "!--": 2495, "uint": 2496, "\u0120produ": 2497, "\u0120stand": 2498, "\u0120proble": 2499, "\u0120available": 2500, "mt": 2501, "\u0120Bl": 2502, "\u0120...": 2503, "\u0120block": 2504, "Input": 2505, "\u0120keep": 2506, "Count": 2507, "open": 2508, "\u0120['": 2509, "\u0120throw": 2510, "uilder": 2511, "Action": 2512, "\u0120things": 2513, "True": 2514, "\u0120url": 2515, "\u0120Bo": 2516, "printf": 2517, "\u0120red": 2518, "js": 2519, ".create": 2520, "\u0120Or": 2521, "Status": 2522, "Instance": 2523, "\u0120control": 2524, "\u0120come": 2525, "\u0120custom": 2526, "location": 2527, "model": 2528, "\u0120\u010d\u010a": 2529, "\u0120source": 2530, "\u0120eas": 2531, ".out": 2532, "]\u010a\u010a": 2533, "oney": 2534, "\u0120await": 2535, "\u0120partic": 2536, "AP": 2537, "ublish": 2538, "odes": 2539, "_pro": 2540, "ply": 2541, "riter": 2542, "\u0120prov": 2543, "\u0120mill": 2544, "HT": 2545, "])\u010a": 2546, "\u0120chang": 2547, "\u0120ask": 2548, "\u0120\u0120\u0120\u0120\u0120\u0120\u0120\u0120\u0120\u0120\u0120\u0120\u0120\u0120\u0120\u0120\u0120\u0120\u0120\u0120\u0120": 2549, "\u0120output": 2550, "\u0120email": 2551, ".push": 2552, "\u0120}\u010d\u010a\u010d\u010a": 2553, "ination": 2554, "atrix": 2555, "Table": 2556, "uccess": 2557, "]);\u010a": 2558, "\u0120\u0120\u0120\u0120\u0120\u0120\u0120\u0120\u0120\u0120\u0120\u0120\u0120\u0120\u0120\u0120\u0120\u0120\u0120\u0120\u0120\u0120\u0120\u0120\u0120\u0120\u0120\u0120\u0120\u0120\u0120\u0120\u0120\u0120\u0120\u0120\u0120\u0120\u0120": 2559, "\u0120disc": 2560, "([": 2561, "\u0120business": 2562, "height": 2563, ".html": 2564, "ta": 2565, "field": 2566, "\u0120required": 2567, "_R": 2568, "\u0120govern": 2569, "}\u010d\u010a\u010d\u010a": 2570, "lex": 2571, ".,": 2572, "\u0120Set": 2573, "urch": 2574, "///": 2575, "ts": 2576, "af": 2577, "\u0120might": 2578, "istory": 2579, "Str": 2580, "\u0120never": 2581, "Response": 2582, "arse": 2583, "ada": 2584, "\u0120How": 2585, "\u0120*)": 2586, "\u0120;": 2587, "\u0120hard": 2588, "Ad": 2589, "\u0120intern": 2590, "used": 2591, "(data": 2592, "mod": 2593, "annel": 2594, "\u0120np": 2595, "ugg": 2596, "\u0120/>\u010a": 2597, "\u0120called": 2598, "body": 2599, "\u0120cho": 2600, "(r": 2601, "_set": 2602, "ird": 2603, "\u0120>=": 2604, "\u0120};\u010a": 2605, "\u0120options": 2606, "\u0120Gener": 2607, "\u0120height": 2608, "Point": 2609, "You": 2610, "ety": 2611, "Click": 2612, "\u0120small": 2613, "\u0120ide": 2614, "\u0120access": 2615, "anguage": 2616, "\u0120protected": 2617, "\u0120job": 2618, "\u0120There": 2619, "Def": 2620, "\u0120address": 2621, "\u0120uint": 2622, "Not": 2623, "oo": 2624, "aps": 2625, "<div": 2626, "ained": 2627, "atur": 2628, "\u0120sum": 2629, "-w": 2630, "\u0120Date": 2631, "\u0120little": 2632, "\u0120fri": 2633, "YPE": 2634, "\u0120port": 2635, "eh": 2636, "pring": 2637, "_path": 2638, "\u0120status": 2639, "aim": 2640, "bool": 2641, "\u0120appe": 2642, "\u0120os": 2643, ".name": 2644, "ension": 2645, "_G": 2646, "\u0120update": 2647, "Config": 2648, "aff": 2649, "ERR": 2650, "\u0120<=": 2651, "ately": 2652, "#if": 2653, "uction": 2654, "\u0120Te": 2655, "\u0120link": 2656, "\u0120User": 2657, ".find": 2658, ".org": 2659, "me": 2660, "\u0120given": 2661, "Out": 2662, "#endif": 2663, "\u0120better": 2664, "Page": 2665, "\u0120feel": 2666, "enn": 2667, "ML": 2668, "\u0120already": 2669, "\u0120including": 2670, "oogle": 2671, "ru": 2672, "ically": 2673, "prop": 2674, "lean": 2675, "outer": 2676, "\u0120always": 2677, "ording": 2678, "If": 2679, "orage": 2680, "\u0120parent": 2681, "vis": 2682, "\u0109\u0109\u0109\u0109\u0109\u0109\u0109": 2683, "\u0120got": 2684, "stand": 2685, "\u0120less": 2686, "/s": 2687, "\u0120Ass": 2688, "apt": 2689, "ired": 2690, "\u0120Add": 2691, "\u0120account": 2692, "ploy": 2693, "\u0120der": 2694, "resent": 2695, "\u0120lot": 2696, "\u0120valid": 2697, "\u0109d": 2698, "\u0120bit": 2699, "ponents": 2700, "\u0120following": 2701, "_ex": 2702, "SON": 2703, "\u0120sure": 2704, "ocial": 2705, "\u0120prom": 2706, "erties": 2707, "header": 2708, ".pro": 2709, "\u0120boolean": 2710, "\u0120search": 2711, "ken": 2712, "\u0120orig": 2713, "\u0120er": 2714, "Ed": 2715, "EM": 2716, "aut": 2717, "ling": 2718, "ality": 2719, "ById": 2720, "bed": 2721, "\u0109case": 2722, "ether": 2723, "posit": 2724, "\u0120invest": 2725, "\u0120OR": 2726, "\u0120says": 2727, "mission": 2728, "AME": 2729, "\u0120temp": 2730, "oad": 2731, "\u0120rest": 2732, "info": 2733, "\u0120interest": 2734, "Arg": 2735, "\u0120perform": 2736, "pons": 2737, "\u0120View": 2738, "\u0120ver": 2739, "lib": 2740, "(const": 2741, "Util": 2742, "Listener": 2743, "arge": 2744, "\u0120mult": 2745, "\u0120die": 2746, "\u0120site": 2747, "../../": 2748, "EL": 2749, "\u0120values": 2750, "\u0120})\u010a": 2751, "pen": 2752, "No": 2753, "icro": 2754, "\u0120beh": 2755, "\u0120'./": 2756, "acy": 2757, "rec": 2758, "()->": 2759, "\u0109\u0120\u0120\u0120": 2760, "\"))": 2761, "Content": 2762, "_W": 2763, "plement": 2764, "\u0120won": 2765, "\u0120video": 2766, "adi": 2767, "point": 2768, "%%": 2769, "\u0120gl": 2770, "erved": 2771, "viron": 2772, "IF": 2773, "uted": 2774, "\u00e3\u0125": 2775, "'m": 2776, "\u0120cert": 2777, "\u0120prof": 2778, "\u0120cell": 2779, "ari": 2780, "\u0120player": 2781, "ais": 2782, "\u0120cost": 2783, "\u0120hum": 2784, "(R": 2785, "\u0120offic": 2786, "ks": 2787, ".text": 2788, "atures": 2789, "\u0120total": 2790, "\u0120*/\u010a\u010a": 2791, "ope": 2792, "\u0120stat": 2793, "UM": 2794, "\u0120load": 2795, "ights": 2796, "\u0120clear": 2797, "uro": 2798, "\u0120techn": 2799, "upport": 2800, "IR": 2801, "\u0120row": 2802, "\u0120seem": 2803, "\u0120q": 2804, "\u0120short": 2805, "\u0120Not": 2806, "ipp": 2807, "Group": 2808, "section": 2809, "max": 2810, "irl": 2811, "\u0120override": 2812, "\u0120company": 2813, "\u0120done": 2814, "\");\u010d\u010a": 2815, "\u0120gre": 2816, ".Re": 2817, "\u0120belie": 2818, "rist": 2819, "\u0120health": 2820, "ANT": 2821, "()\u010a\u010a": 2822, "\u0120Be": 2823, ".value": 2824, "\u0120Gr": 2825, "ottom": 2826, "\u0120args": 2827, "PT": 2828, "status": 2829, "func": 2830, "uments": 2831, "-h": 2832, "Number": 2833, ":\u010d\u010a": 2834, "\u0120Log": 2835, "erver": 2836, "\u0120),\u010a": 2837, "ament": 2838, "\u0120obj": 2839, "inc": 2840, "\u0120children": 2841, "icy": 2842, "IZ": 2843, "ands": 2844, "ably": 2845, "\u0120distrib": 2846, "\u0120cur": 2847, "erial": 2848, "\u0120days": 2849, "reated": 2850, "rect": 2851, "-l": 2852, "irm": 2853, "idden": 2854, "omb": 2855, "\u0120initial": 2856, ".js": 2857, "\u0120\u00e2": 2858, "Query": 2859, "\u0120online": 2860, "imal": 2861, ".con": 2862, "au": 2863, "Url": 2864, "control": 2865, "irection": 2866, "\u0120instance": 2867, "ORT": 2868, "\u0120Fr": 2869, "where": 2870, "\u0120javax": 2871, "\u0120organ": 2872, "apter": 2873, "\u0120reason": 2874, "options": 2875, "\u0120Mar": 2876, "(a": 2877, "\u0120within": 2878, ".\u00e2\u0122\u013f\u010a\u010a": 2879, "ODE": 2880, "_DE": 2881, "admin": 2882, "ended": 2883, "\u0120design": 2884, "\u0120Data": 2885, "une": 2886, "\u0120File": 2887, "root": 2888, "\u0120cent": 2889, "\u0120arr": 2890, "_add": 2891, "len": 2892, "page": 2893, ",'": 2894, "_str": 2895, "\u0120bro": 2896, "ability": 2897, "outh": 2898, "/c": 2899, "pose": 2900, "irtual": 2901, "earch": 2902, "_url": 2903, "argin": 2904, "Http": 2905, "\u0120school": 2906, "ava": 2907, "\u0120consider": 2908, ".label": 2909, "\u0120Array": 2910, "web": 2911, "opt": 2912, ".println": 2913, "ulation": 2914, "\u0120func": 2915, "PL": 2916, "\u0120\"\\": 2917, "\u0120Text": 2918, "actory": 2919, "(function": 2920, "null": 2921, "\u0120eng": 2922, "down": 2923, "\u0120include": 2924, "\u0120En": 2925, "\u0120Dr": 2926, "\u0120db": 2927, "!!": 2928, "side": 2929, "\u0120init": 2930, "quired": 2931, "\u0120She": 2932, "Column": 2933, "react": 2934, "\u0120ann": 2935, "\u0120stop": 2936, "\u0120later": 2937, "\u0120That": 2938, "ention": 2939, "df": 2940, "UG": 2941, "ILE": 2942, "\u0120client": 2943, "raft": 2944, "ffer": 2945, "POST": 2946, "elper": 2947, "\u0120love": 2948, "quote": 2949, "oud": 2950, "\u0120json": 2951, "\u0120able": 2952, "\u0120men": 2953, "AX": 2954, "\u0120Copyright": 2955, "\u00c3\u00b6": 2956, "avig": 2957, "req": 2958, "Client": 2959, "});\u010a": 2960, ".Com": 2961, "erc": 2962, "ilt": 2963, "pecial": 2964, "_com": 2965, "room": 2966, ".Name": 2967, "\u0120give": 2968, "amb": 2969, "ike": 2970, "\u0120condition": 2971, "client": 2972, "ators": 2973, ":\"": 2974, "\u0120copy": 2975, "uture": 2976, "iversity": 2977, "ernal": 2978, "{{": 2979, "\u0120Can": 2980, "ounc": 2981, "do": 2982, "\u0120occ": 2983, "\u0120appro": 2984, "thers": 2985, "ze": 2986, "\u0120either": 2987, "\u0120Fl": 2988, "\u0120important": 2989, "\u0120lead": 2990, "attr": 2991, "ART": 2992, "Equal": 2993, "\u0120da": 2994, "etch": 2995, "entity": 2996, "\u0120family": 2997, "adding": 2998, "\u0120option": 2999, "\u0120exist": 3000, "ica": 3001, "\u0120Object": 3002, "'ve": 3003, "vers": 3004, "itional": 3005, "output": 3006, "\u0120True": 3007, "\u0120OF": 3008, "_time": 3009, "\u0120offer": 3010, "\u0120});\u010a\u010a": 3011, "HER": 3012, "egin": 3013, "\"\"": 3014, "\u0120water": 3015, "\u0120che": 3016, "\u0120My": 3017, "ored": 3018, "\u0120step": 3019, "ances": 3020, "CK": 3021, "AY": 3022, "\u00e0\u00b8": 3023, "struction": 3024, "(C": 3025, "ouch": 3026, "Stream": 3027, "active": 3028, "ama": 3029, "Entity": 3030, "product": 3031, "(){\u010a": 3032, "\u0120government": 3033, "\u0120ID": 3034, "ajor": 3035, "And": 3036, "\u0120display": 3037, "\u00d0\u00bb": 3038, "\u0120times": 3039, "\u0120four": 3040, "\u0120far": 3041, "\u0120present": 3042, "\u0120NS": 3043, "\u0120\\\u010a": 3044, "uest": 3045, "\u0120bas": 3046, "echo": 3047, "child": 3048, "ifier": 3049, "Handler": 3050, "\u0120lib": 3051, "Property": 3052, "translation": 3053, "\u0120room": 3054, "\u0120once": 3055, "\u0120[]": 3056, "center": 3057, "================================": 3058, "\u0120results": 3059, "\u0120continue": 3060, "\u0120talk": 3061, "_get": 3062, "\u0120grow": 3063, ".sw": 3064, "eb": 3065, "\u0120Public": 3066, "OP": 3067, "ecute": 3068, "ols": 3069, "\u0120**": 3070, "\");\u010a\u010a": 3071, "\u0120mass": 3072, "ured": 3073, ".class": 3074, "omic": 3075, "\u0120mean": 3076, "ips": 3077, "\u0120aut": 3078, ");\u010d\u010a\u010d\u010a": 3079, "\u0120until": 3080, "\u0120market": 3081, "\u0120area": 3082, "uit": 3083, "\u0120length": 3084, "\u0120With": 3085, "structor": 3086, "event": 3087, "\"><": 3088, "\u0120Sp": 3089, "IV": 3090, "\u0120mus": 3091, "iff": 3092, "\u0120kind": 3093, "author": 3094, "ounds": 3095, "mb": 3096, "_key": 3097, "width": 3098, "pository": 3099, "\u0120light": 3100, "uk": 3101, "Row": 3102, "ohn": 3103, "alf": 3104, "vironment": 3105, "apper": 3106, "ollections": 3107, "\u0120side": 3108, "_info": 3109, "\u0120example": 3110, "imary": 3111, "\u0120wr": 3112, "\u0120camp": 3113, "cribe": 3114, "\"/": 3115, "\u0120miss": 3116, "way": 3117, "\u0120based": 3118, "\u0120plan": 3119, "Vis": 3120, "omain": 3121, "unk": 3122, "\u0120away": 3123, "UP": 3124, "<T": 3125, "OS": 3126, "iod": 3127, "\u0120Mon": 3128, "\u00e2\u0122\u013bre": 3129, "\u0120lik": 3130, "\u00c3\u00a7": 3131, "ively": 3132, ".v": 3133, "imer": 3134, "izer": 3135, "Sub": 3136, "\u0120button": 3137, "\u0120Up": 3138, "\u0120experience": 3139, "CL": 3140, "\u0120render": 3141, "_value": 3142, "\u0120near": 3143, "URL": 3144, "alt": 3145, "\u0120country": 3146, "ibility": 3147, "(),\u010a": 3148, "ead": 3149, "\u0120author": 3150, "\u0120specific": 3151, "base": 3152, "(name": 3153, "ones": 3154, "\u0120Do": 3155, "\u0120along": 3156, "year": 3157, "\u0120express": 3158, ".'": 3159, "env": 3160, "\u0120begin": 3161, "\u0120software": 3162, "\u0120imp": 3163, "\u0120win": 3164, "\u00c3\u00b3n": 3165, "\u0120thing": 3166, "Trans": 3167, "\u0120THE": 3168, "\u0120<?": 3169, "\u0120why": 3170, "\u0120doesn": 3171, "ij": 3172, "ging": 3173, "\u0109g": 3174, "\u0120single": 3175, "offset": 3176, "arning": 3177, "ograph": 3178, "ley": 3179, "_count": 3180, "\u0120anal": 3181, "create": 3182, "/m": 3183, "\u0120Reg": 3184, "unch": 3185, "=$": 3186, "isk": 3187, "\u0120rights": 3188, "(M": 3189, "\u0120\"\"\"\u010a": 3190, "aper": 3191, ".model": 3192, "\u0120po": 3193, "empty": 3194, "artment": 3195, "\u0120ant": 3196, "\u0120When": 3197, "\u0120women": 3198, "\u0120Ed": 3199, "\u0120season": 3200, "\u0120dest": 3201, "\u00c3\u00a3": 3202, "(h": 3203, "\u0120possible": 3204, "\u0120sever": 3205, "\u0120btn": 3206, "\u0120didn": 3207, "\u0120sent": 3208, "\u0120enc": 3209, "\u0120command": 3210, "\u0120],\u010a": 3211, "_x": 3212, "\u0120recent": 3213, "olution": 3214, "vector": 3215, "\u0120By": 3216, "\u0120May": 3217, "\u0120Act": 3218, "\u00bb\u00bf": 3219, "\u0120money": 3220, "INT": 3221, "bsite": 3222, "\u0109p": 3223, ".\u010d\u010a": 3224, "\u00ef\u00bb\u00bf": 3225, "sl": 3226, "attern": 3227, "\u0120Class": 3228, "\u0120told": 3229, "udio": 3230, "current": 3231, "\u0120equ": 3232, "\u0120auto": 3233, "\u0120State": 3234, "da": 3235, "msg": 3236, "));\u010a\u010a": 3237, "\u0120working": 3238, "\u0120query": 3239, "\u0120Br": 3240, "\u0120window": 3241, "auth": 3242, "only": 3243, "\u0109t": 3244, "\u0120least": 3245, "agn": 3246, "\u0120expl": 3247, "itter": 3248, "aring": 3249, "\u0120column": 3250, "\u0120General": 3251, "\":\"": 3252, "eral": 3253, "rior": 3254, "\u0120record": 3255, "IB": 3256, "EX": 3257, "\u0120dat": 3258, "\u0120making": 3259, "ued": 3260, "\u0120Car": 3261, "emp": 3262, "\".": 3263, "\u0120Med": 3264, "\u0120close": 3265, "\u0120percent": 3266, "\u0120past": 3267, "(g": 3268, ":(": 3269, "\u0120write": 3270, "\u0120move": 3271, "\u0120pat": 3272, "Control": 3273, ".To": 3274, "\u0120vi": 3275, "*/\u010a": 3276, "inate": 3277, "'ll": 3278, "aged": 3279, "Null": 3280, "\u0120special": 3281, "IZE": 3282, "\u0120city": 3283, "/*\u010a": 3284, "\u0120Eng": 3285, "ixed": 3286, "inary": 3287, "py": 3288, "\u0120eff": 3289, "ario": 3290, "\u0120tell": 3291, "avor": 3292, "\u0120select": 3293, "level": 3294, "imum": 3295, "oper": 3296, "Builder": 3297, "IP": 3298, "'),\u010a": 3299, "esc": 3300, "\u0120font": 3301, "\";\u010a\u010a": 3302, "\u0120Am": 3303, "ished": 3304, "ills": 3305, "Inter": 3306, "OW": 3307, "\u0120course": 3308, "\u0120late": 3309, "iddle": 3310, "\u0120amount": 3311, "\u0120async": 3312, "ino": 3313, "cul": 3314, "\u0120\u00ec": 3315, "andle": 3316, "_user": 3317, "\u0120ben": 3318, "\u0120Cal": 3319, "\u0120$_": 3320, "\u0120Rep": 3321, "\u0120enough": 3322, "Token": 3323, ".user": 3324, "(j": 3325, "Sc": 3326, "Width": 3327, "now": 3328, "atform": 3329, "\u0120looking": 3330, "\u0120hold": 3331, "Module": 3332, "ITY": 3333, "vo": 3334, "ison": 3335, ".Data": 3336, "yc": 3337, "\u0120pot": 3338, "\u0120Trump": 3339, "idual": 3340, "ides": 3341, "rt": 3342, "\u0120property": 3343, "\u0120\u0120\u0120\u0120\u0120\u0120\u0120\u0120\u0120\u0120\u0120\u0120\u0120\u0120\u0120\u0120\u0120\u0120\u0120\u0120\u0120\u0120\u0120\u0120\u0120\u0120\u0120\u0120\u0120\u0120\u0120\u0120\u0120\u0120\u0120\u0120\u0120\u0120\u0120\u0120\u0120\u0120\u0120": 3344, "amework": 3345, "go": 3346, "\u0120low": 3347, "\u0120para": 3348, "\u0120price": 3349, "ury": 3350, "\u0120today": 3351, "roy": 3352, "\u0120'/": 3353, "\u0120polit": 3354, "\u0120''": 3355, "ymb": 3356, "Ph": 3357, "\u0120adv": 3358, "\u0120attack": 3359, "\u0120Ste": 3360, "ROM": 3361, "ana": 3362, "\u0120means": 3363, "\u0120story": 3364, "ids": 3365, "aken": 3366, "\u0120meet": 3367, "\u0120mom": 3368, "\u0120\u00e2\u0122\u013a": 3369, "\u0120?>": 3370, "\u0120den": 3371, "obile": 3372, "change": 3373, "\u0120\u0120\u0120\u0120\u0120\u0120\u0120\u0120\u0120\u0120\u0120\u0120\u010a": 3374, "ici": 3375, "na": 3376, "\u0120Form": 3377, "\u0120sort": 3378, "Select": 3379, "pare": 3380, "\u0120thought": 3381, "_con": 3382, "\u0120task": 3383, "ocus": 3384, "\u0120DE": 3385, "\u0120Min": 3386, "\u0120opt": 3387, "\u0109break": 3388, "umer": 3389, "KE": 3390, "then": 3391, "\u0120det": 3392, "\u0120Test": 3393, "ports": 3394, "\u0120review": 3395, "('/": 3396, "move": 3397, "\u0120switch": 3398, "ERT": 3399, "patch": 3400, "annot": 3401, "\u00e3\u0124": 3402, "\u0120above": 3403, "itive": 3404, "\u0120question": 3405, "\u0120Qu": 3406, "\u00e3\u0122\u0124\u010a\u010a": 3407, "gle": 3408, "\u0120word": 3409, "\u0120provide": 3410, "\u0120Return": 3411, "\u0120research": 3412, "\u00c3\u00a3o": 3413, "ustr": 3414, "\u0120publish": 3415, "chema": 3416, "}}": 3417, "\u0120CON": 3418, "-in": 3419, "allback": 3420, "\u0120cover": 3421, "\\\\": 3422, "color": 3423, "\u0120IS": 3424, "\u0120whether": 3425, "imate": 3426, "isc": 3427, "Bar": 3428, "\u0120div": 3429, "Be": 3430, "ourn": 3431, "\u0120having": 3432, "lem": 3433, "player": 3434, "abs": 3435, "amera": 3436, "ney": 3437, "\u0120exc": 3438, "gether": 3439, "plied": 3440, "ao": 3441, "[$": 3442, "\u0120++": 3443, "ipe": 3444, "show": 3445, "/d": 3446, "[:": 3447, "agement": 3448, "lev": 3449, "_ID": 3450, "rary": 3451, "ades": 3452, "_se": 3453, "ause": 3454, "\u0120employ": 3455, "\u0120*/\u010d\u010a": 3456, "\u0120fre": 3457, "\u0120'@": 3458, "\u0120complet": 3459, "\u0120large": 3460, "ral": 3461, "\\x": 3462, "\u0120fac": 3463, "<String": 3464, "\u0120created": 3465, "uper": 3466, ".state": 3467, "\u0120host": 3468, "eneric": 3469, "/b": 3470, "(!": 3471, "while": 3472, "ias": 3473, "BUG": 3474, "\u0120);\u010a\u010a": 3475, "\u0120role": 3476, "Reg": 3477, "\u0120Color": 3478, "Start": 3479, "\u0120porn": 3480, "top": 3481, "\u0120web": 3482, "\u0120dev": 3483, "\u0120deal": 3484, "++)\u010a": 3485, "Integer": 3486, "position": 3487, ".on": 3488, "\u0120(\"": 3489, "\u00e4\u00b8": 3490, "\u0120problem": 3491, "sv": 3492, "\u0120press": 3493, "ABLE": 3494, "ATION": 3495, "\u0120See": 3496, "anch": 3497, "\u0120though": 3498, "leep": 3499, "\u0120<!--": 3500, "\u0120points": 3501, "\u0120\u0120\u0120\u0120\u0120\u0120\u0120\u0120\u0120\u0120\u0120\u0120\u0120\u0120\u0120\u0120\u0120\u0120\u0120\u0120\u0120\u0120\u0120\u0120\u0120": 3502, ".J": 3503, "\u0120::": 3504, "ptr": 3505, "DB": 3506, "++;\u010a": 3507, ".png": 3508, "node": 3509, "soft": 3510, "pond": 3511, "\u0120ever": 3512, "----------------------------------------------------------------": 3513, "Menu": 3514, "('#": 3515, "\u0120services": 3516, "pg": 3517, "})\u010a": 3518, "params": 3519, "\u0120actually": 3520, "\u0120\"/": 3521, "Empty": 3522, "Method": 3523, "\u0120ident": 3524, "unic": 3525, "\u0120million": 3526, "\u0120aff": 3527, "style": 3528, "\u0120conc": 3529, "ios": 3530, "ignment": 3531, "ULT": 3532, "Pr": 3533, "\";\u010d\u010a": 3534, "\u0120understand": 3535, "uary": 3536, "\u0120happen": 3537, "\u0120server": 3538, "\u0120Co": 3539, "SC": 3540, "\u0120les": 3541, "\u0120files": 3542, "Grid": 3543, "sql": 3544, "\u0120often": 3545, "\u0120info": 3546, "_tr": 3547, "src": 3548, "ony": 3549, "\u0120space": 3550, "umb": 3551, "\u0120password": 3552, "\u0120store": 3553, ",\u010a\u010a": 3554, "\u0120What": 3555, "ged": 3556, "\u0120False": 3557, "Us": 3558, "swer": 3559, "_index": 3560, "\u0120format": 3561, "most": 3562, "sm": 3563, "New": 3564, "\u0120details": 3565, "\u0120prob": 3566, "\u0120AND": 3567, "()\u010d\u010a": 3568, "ilar": 3569, "\u0120${": 3570, "rypt": 3571, ".Collections": 3572, "$this": 3573, "\u0120Free": 3574, "_of": 3575, "(false": 3576, "dated": 3577, "\u0120>>": 3578, "\u0120face": 3579, "CTION": 3580, "\u0120save": 3581, "\u0120typ": 3582, "dev": 3583, "(\"#": 3584, "AGE": 3585, "container": 3586, "edit": 3587, "QL": 3588, "\u0120items": 3589, "\u0120social": 3590, "ien": 3591, "\u0120React": 3592, ").\u010a\u010a": 3593, "\u0120mar": 3594, "\u0120redu": 3595, "\u0120RE": 3596, ".put": 3597, "\u0120major": 3598, "Cell": 3599, "next": 3600, "\u0120expected": 3601, "\u0120yet": 3602, "\u0120indiv": 3603, "tributes": 3604, "atis": 3605, "amed": 3606, "\u0120food": 3607, "Source": 3608, "(string": 3609, "\u0120+\u010a": 3610, "ites": 3611, "dr": 3612, "\u0120members": 3613, "\u0120comb": 3614, "items": 3615, "\u0120Per": 3616, "TH": 3617, "=True": 3618, "\u0120bar": 3619, "_SE": 3620, "comm": 3621, "(w": 3622, ")\u010a\u010a\u010a": 3623, "\u0120send": 3624, "\u0120inc": 3625, "unsigned": 3626, "FA": 3627, "\u0120params": 3628, "apping": 3629, "ros": 3630, "ugin": 3631, "fa": 3632, "\u0120connection": 3633, "\u0120};\u010a\u010a": 3634, "\u0120become": 3635, "Mode": 3636, "\u0120ev": 3637, "\u0120diff": 3638, "\u0120United": 3639, "Height": 3640, "fully": 3641, "images": 3642, "\u0120makes": 3643, "\u0120global": 3644, "\u0120contact": 3645, "':\u010a": 3646, "\u0120abs": 3647, "\u00d0\u00b0\u00d0": 3648, "float": 3649, "\u0120except": 3650, "\u0120Pol": 3651, "Child": 3652, "typ": 3653, "\u0120certain": 3654, "i\u00c3\u00b3n": 3655, "OUT": 3656, "\u0120impro": 3657, "iles": 3658, "\u0120-->\u010a": 3659, "\u0120Part": 3660, "values": 3661, "oss": 3662, "/**": 3663, "ilit": 3664, "\u0120Event": 3665, "curity": 3666, "ster": 3667, "\u0120character": 3668, "\u0120news": 3669, "\u0120\",": 3670, "\u0120device": 3671, "cel": 3672, "login": 3673, "heet": 3674, "Default": 3675, "@\"": 3676, "\u0109\u0120": 3677, "click": 3678, "(value": 3679, "\u0120Ab": 3680, "\u0120previous": 3681, "ERROR": 3682, "ocal": 3683, "\u0120material": 3684, "\u0120below": 3685, "\u0120Christ": 3686, "\u0120media": 3687, "cover": 3688, "\u0120UI": 3689, "\u0120fail": 3690, "\u0120black": 3691, "\u0120component": 3692, "\u0120American": 3693, "\u0120added": 3694, "\u0120buy": 3695, "stit": 3696, "\u0120came": 3697, "\u0120delete": 3698, "property": 3699, "oding": 3700, "\u0120card": 3701, "rops": 3702, "\u0120https": 3703, "\u0120root": 3704, "\u0120handle": 3705, "CC": 3706, "Back": 3707, "emplate": 3708, "\u0120getting": 3709, "_by": 3710, "mail": 3711, "_sh": 3712, ".assert": 3713, "\u0120Dec": 3714, "(true": 3715, "\u0120comput": 3716, "\u0120claim": 3717, "'=>": 3718, "\u0120Sub": 3719, "\u0120air": 3720, "ops": 3721, "nav": 3722, "ements": 3723, "(id": 3724, "\u0120enter": 3725, "anged": 3726, "End": 3727, "\u0120location": 3728, "\u0120night": 3729, "\u0120doing": 3730, "\u0120Red": 3731, "lin": 3732, "}\u010a\u010a\u010a": 3733, "vider": 3734, "\u0120pick": 3735, "\u0120watch": 3736, "essages": 3737, "\u0120human": 3738, "\u0120dam": 3739, "pend": 3740, "dir": 3741, "\u0120tax": 3742, "\u0120girl": 3743, "reet": 3744, "\u0120box": 3745, "\u0120strong": 3746, "(v": 3747, "rel": 3748, "\u0120interface": 3749, "\u0120msg": 3750, "fect": 3751, "_at": 3752, "\u0120house": 3753, "\u0120track": 3754, "');\u010a\u010a": 3755, "je": 3756, "\u0120John": 3757, "istr": 3758, "(S": 3759, "ube": 3760, "\u0120ce": 3761, "itted": 3762, "VER": 3763, "*)": 3764, "parent": 3765, "\u0120application": 3766, "any": 3767, ".swing": 3768, "\u0120pack": 3769, "\\u": 3770, "\u0120pract": 3771, "\u0120section": 3772, "ctx": 3773, "\u0120unsigned": 3774, ".Point": 3775, "\u0120One": 3776, "\u00c4\u00b1": 3777, "iple": 3778, "aid": 3779, "\u00d1\u0125": 3780, "Vector": 3781, "byte": 3782, "\u0120wait": 3783, "\u0120\u00c3\u0142": 3784, "\u00c3\u00a5": 3785, "\u0120together": 3786, "\u0120throws": 3787, "FO": 3788, "'))": 3789, "host": 3790, "ising": 3791, ".view": 3792, "\u0120terms": 3793, "framework": 3794, "-r": 3795, "\u0120apply": 3796, "\u0120session": 3797, "Options": 3798, "uggest": 3799, "\u0120others": 3800, "witter": 3801, "\u0120fund": 3802, "Init": 3803, "__(": 3804, "ensor": 3805, "GET": 3806, "\u0120several": 3807, "ii": 3808, "[j": 3809, "IO": 3810, "\u0120template": 3811, "Position": 3812, "\u0120econ": 3813, "achine": 3814, "\u0120il": 3815, ".spring": 3816, "main": 3817, "elt": 3818, "iment": 3819, "Rec": 3820, "mm": 3821, "\u0120University": 3822, "ursor": 3823, "\u0120\u0120\u0120\u0120\u0120\u0120\u0120\u0120\u0120\u0120\u0120\u0120\u0120\u0120\u0120\u0120\u0120\u0120\u0120\u0120": 3824, "GL": 3825, "icture": 3826, "ithub": 3827, "cer": 3828, "cast": 3829, "From": 3830, "ales": 3831, "\u0120subject": 3832, "password": 3833, "ny": 3834, "\u0120esc": 3835, ".write": 3836, "\u00ef\u00bc\u012e": 3837, "What": 3838, ".H": 3839, "\u0120history": 3840, "\u0120Fe": 3841, "\u0120individual": 3842, "unit": 3843, "\u0120-->": 3844, "\u0120du": 3845, "IST": 3846, "\u0120users": 3847, "fs": 3848, "false": 3849, "unt": 3850, "Title": 3851, "\u0120mot": 3852, "\u0120future": 3853, "ached": 3854, "\u0120started": 3855, "\u0120mode": 3856, "\u0120'<": 3857, "_array": 3858, "\u0120ax": 3859, "'];\u010a": 3860, "ires": 3861, "There": 3862, "ught": 3863, "tml": 3864, "posed": 3865, "icult": 3866, "\u0120took": 3867, "\u0120games": 3868, "\u0120}}": 3869, "\u0120?>\u010a": 3870, "\u0120products": 3871, "Is": 3872, "\u0120bad": 3873, "\u0120Des": 3874, ".path": 3875, "'\u010a\u010a": 3876, "\u0120Post": 3877, "avel": 3878, "(:": 3879, "\u0120needs": 3880, "\u0120known": 3881, "Fl": 3882, "\u0120exec": 3883, "\u0120seen": 3884, "ume": 3885, "\u0120border": 3886, "\u0120live": 3887, "temp": 3888, "Per": 3889, "\u0120variable": 3890, "iet": 3891, "\u0120Def": 3892, "\u0120ge": 3893, "eme": 3894, "_back": 3895, "first": 3896, "\u0120provided": 3897, "////////////////////////////////": 3898, "\u0120filename": 3899, "\u0120hope": 3900, "uly": 3901, "auto": 3902, "find": 3903, "_string": 3904, "btn": 3905, "itude": 3906, "Attribute": 3907, "\u0120young": 3908, ".txt": 3909, "\u0120website": 3910, "\u0120Prop": 3911, "\u0120ey": 3912, ">();\u010a": 3913, "ional": 3914, "ARR": 3915, "ictionary": 3916, "urther": 3917, ".</": 3918, "ALL": 3919, "\u0120study": 3920, "ili": 3921, "\u0120network": 3922, "yl": 3923, "istance": 3924, "OK": 3925, "NU": 3926, "rest": 3927, "\u0120ST": 3928, "icrosoft": 3929, "\u0120limit": 3930, "\u0120cut": 3931, "():\u010a": 3932, "\u0120cou": 3933, "ogn": 3934, "\u0120sizeof": 3935, "ival": 3936, "\u0120went": 3937, ".z": 3938, "Link": 3939, "\u0120fire": 3940, "\u0120across": 3941, "\u0120community": 3942, "region": 3943, "NE": 3944, "Ref": 3945, "\u0120official": 3946, "\u0120visit": 3947, "olve": 3948, "\u0120received": 3949, "\u0120token": 3950, "\u0120months": 3951, "\u0120anim": 3952, "\u0120particular": 3953, "styles": 3954, "ico": 3955, "\u0120ess": 3956, ".Control": 3957, "\u0120\u00c3\u00a9": 3958, "ball": 3959, "\u0120learn": 3960, "inding": 3961, "Var": 3962, "\u0120decl": 3963, "(err": 3964, "LECT": 3965, "One": 3966, "pha": 3967, "\u0120~": 3968, "fort": 3969, "asure": 3970, "\u0120mind": 3971, "\u0120End": 3972, "Check": 3973, "\u0120quick": 3974, "\"),": 3975, "AND": 3976, "utions": 3977, "Base": 3978, "________": 3979, "\u0120comment": 3980, "INE": 3981, "\u00e2\u0122\u013bve": 3982, "But": 3983, "\u0120El": 3984, "\u0120Us": 3985, "\u0120admin": 3986, "mark": 3987, "\u0120Name": 3988, "`\u010a": 3989, "\u0120Type": 3990, "amic": 3991, "pc": 3992, "loor": 3993, "FT": 3994, "\u0120opp": 3995, "cket": 3996, ")->": 3997, "tx": 3998, "\u0120pur": 3999, "uel": 4000, "ymbol": 4001, "uation": 4002, "anger": 4003, "\u0120background": 4004, "ecess": 4005, "efined": 4006, "........": 4007, "\u0120description": 4008, "\u0120represent": 4009, "\"));\u010a": 4010, "pression": 4011, "rowser": 4012, "\u0120series": 4013, "wards": 4014, "($_": 4015, "aise": 4016, "\u0120hot": 4017, "acity": 4018, "ries": 4019, "actions": 4020, "Create": 4021, "adio": 4022, "amples": 4023, "\u0120original": 4024, "ensive": 4025, "font": 4026, "stream": 4027, "\u00ef\u00bb\u00bfusing": 4028, ".springframework": 4029, "server": 4030, "\u0120bill": 4031, "ACK": 4032, "ilename": 4033, "\u0120frame": 4034, "\u0120=\u010a": 4035, "Edit": 4036, "adius": 4037, "\u0120draw": 4038, "anks": 4039, "\u0120deter": 4040, "\u0120comes": 4041, "_int": 4042, "\u0120foreach": 4043, "angle": 4044, "\u0120elect": 4045, "pected": 4046, "Header": 4047, "istration": 4048, "False": 4049, "\u0120Game": 4050, "\u0120filter": 4051, "Activity": 4052, "\u0120larg": 4053, "inition": 4054, "\u0120\"<": 4055, "ised": 4056, "\u0120remove": 4057, "\u0120Trans": 4058, "met": 4059, "see": 4060, "Format": 4061, "Command": 4062, "\u0120EX": 4063, "None": 4064, "\u0120front": 4065, "ASE": 4066, "\u0120Rec": 4067, "oundation": 4068, "\u0120vo": 4069, "=\\\"": 4070, "(*": 4071, "Change": 4072, ".Write": 4073, "group": 4074, "ients": 4075, "uy": 4076, "****************************************************************": 4077, "\u0120dig": 4078, "hr": 4079, "(-": 4080, "\u0120gen": 4081, "number": 4082, "vec": 4083, "urope": 4084, "entry": 4085, "LL": 4086, "\u0120ste": 4087, "Valid": 4088, "'],": 4089, "_param": 4090, "\u0120selected": 4091, "\u0120according": 4092, "\u0120Dis": 4093, "\u0120util": 4094, "Buffer": 4095, "_error": 4096, "\u0120associ": 4097, "_SIZE": 4098, "\u0120wor": 4099, "\u0120printf": 4100, "rag": 4101, "\u00c2\u0142": 4102, "DD": 4103, "\u0120Val": 4104, "\u0120activ": 4105, "Eng": 4106, "etime": 4107, "\u0120virtual": 4108, "aign": 4109, "aur": 4110, "\u0120Pres": 4111, "\u0120Exception": 4112, "\u0120anything": 4113, "\u0120Off": 4114, "\u0120hours": 4115, "\u0120war": 4116, "Args": 4117, "aging": 4118, "\u0120models": 4119, "\u0120Time": 4120, "Ob": 4121, "ams": 4122, "joy": 4123, "\u0120early": 4124, ".read": 4125, "\u0120center": 4126, "\u0120Initial": 4127, "\u0120language": 4128, "length": 4129, "xy": 4130, "\u0120sn": 4131, "\u0120inf": 4132, "Post": 4133, "\u0120ago": 4134, "\u0120easy": 4135, "_code": 4136, "\u0120ANY": 4137, "_ch": 4138, "\u0120download": 4139, "(T": 4140, "aved": 4141, "\u00e2\u0122\u0135": 4142, "\u0120students": 4143, "\u0120fig": 4144, "light": 4145, "xx": 4146, "\u0120buffer": 4147, "\u0120Dep": 4148, "\u0120Math": 4149, "ITH": 4150, "\u0120vari": 4151, "\u0120due": 4152, "Factory": 4153, "\u0120por": 4154, "\u0120ep": 4155, "otype": 4156, "\u0120cannot": 4157, "\u0120white": 4158, "<int": 4159, "tern": 4160, "\u0120register": 4161, "\u0120pred": 4162, "clus": 4163, "_date": 4164, "\u0120/**": 4165, "\u0120auth": 4166, "\u0120[]\u010a": 4167, "\u0120period": 4168, "nown": 4169, "\u0120vot": 4170, "\u0120screen": 4171, "'d": 4172, "Types": 4173, "\u0120tmp": 4174, "\u00d0\u00b5\u00d0": 4175, "ural": 4176, "\u0120benef": 4177, "_y": 4178, "\u0120net": 4179, "\u0120States": 4180, "']['": 4181, "\u0120Ne": 4182, "\u0120NOT": 4183, "\u0120neg": 4184, "\u0120common": 4185, "scope": 4186, "\u0120cred": 4187, "ges": 4188, "_TYPE": 4189, "\u0120suggest": 4190, "oom": 4191, ".\u010a\u010a\u010a": 4192, "\u0120accept": 4193, "\u0120random": 4194, "erm": 4195, "\u0120Vector": 4196, "with": 4197, "TER": 4198, "(str": 4199, "\u0120respons": 4200, "\u0120hit": 4201, ".Set": 4202, "grid": 4203, "ria": 4204, "\u0120click": 4205, "undle": 4206, "Case": 4207, "insert": 4208, "Utils": 4209, "\u0120\"\"\"": 4210, "\u0120implement": 4211, "atal": 4212, "tempt": 4213, "template": 4214, "ocr": 4215, "returns": 4216, "\u0120players": 4217, "users": 4218, "edef": 4219, "\u0120These": 4220, "\u0120among": 4221, "\u0120deb": 4222, "ha": 4223, ".getElement": 4224, "\u0120circ": 4225, "\u0120answer": 4226, "\u0120walk": 4227, "\u0120treat": 4228, "\u0120Ge": 4229, "\u0120Create": 4230, "\u0120age": 4231, "\u0120req": 4232, "OST": 4233, "angular": 4234, "\u00d1\u0131": 4235, "\u0120five": 4236, "\u0120distributed": 4237, "\u0120friend": 4238, "TP": 4239, "\u0120clean": 4240, "ows": 4241, ".Controls": 4242, "dis": 4243, "\u0120words": 4244, ".io": 4245, "zy": 4246, "\u0120header": 4247, "\u0120Check": 4248, "\u00e2\u0122\u013bm": 4249, "just": 4250, "holder": 4251, "=\"<?": 4252, "\u0120GNU": 4253, "\u0120Col": 4254, "imest": 4255, "entic": 4256, "{\u010a\u010a": 4257, "\u0120tre": 4258, "last": 4259, "la": 4260, "\u0120York": 4261, "Lo": 4262, "\u0120discuss": 4263, "\u0120God": 4264, "\u0120issue": 4265, "rew": 4266, "Window": 4267, "\u0120land": 4268, "\u0120stream": 4269, "\u0120Par": 4270, "\u0120quality": 4271, "Par": 4272, "_num": 4273, "\u0120sal": 4274, "elves": 4275, "ORD": 4276, "(user": 4277, "\u0120works": 4278, "\u0120half": 4279, "enses": 4280, "vas": 4281, "\u0120police": 4282, "(\"/": 4283, "ua": 4284, "\u0120simple": 4285, "Address": 4286, "\u0120empty": 4287, "esh": 4288, "Update": 4289, "\u0120Created": 4290, "('.": 4291, ").\u010a": 4292, "\u0120\u0120\u0120\u0120\u0120\u0120\u0120\u0120\u0120\u0120\u0120\u0120\u0120\u0120\u0120\u0120\u0120\u0120": 4293, "\u0120agre": 4294, "\u0120FROM": 4295, "\u0120cook": 4296, "\u0120everything": 4297, "ilities": 4298, ".status": 4299, "\u0120relations": 4300, "extern": 4301, "\u0120nothing": 4302, "\u0120running": 4303, "\u0109void": 4304, "RI": 4305, "_a": 4306, "_CON": 4307, "por": 4308, ".sub": 4309, "require": 4310, "\u0120City": 4311, "\u0120West": 4312, "\u0120mor": 4313, "store": 4314, "Equals": 4315, "oder": 4316, "\u0120na": 4317, "\u0120[[": 4318, "\u0120('": 4319, "\u0120Don": 4320, "ERS": 4321, "/p": 4322, ".json": 4323, "abor": 4324, "\u0120someone": 4325, "_text": 4326, ".css": 4327, ".Tab": 4328, "\u0120Some": 4329, "ato": 4330, "double": 4331, "\u0120share": 4332, "(void": 4333, "_dir": 4334, "\u0120ur": 4335, "Stack": 4336, "\u0120World": 4337, ".X": 4338, "stract": 4339, "How": 4340, ".Generic": 4341, "icles": 4342, "\u0120entry": 4343, "\u0120changes": 4344, "\u0120personal": 4345, "(A": 4346, "\u0120offset": 4347, "_ptr": 4348, "\u0120pie": 4349, "\u0120Jan": 4350, "-group": 4351, "module": 4352, "Items": 4353, "\u0120However": 4354, "verage": 4355, ".Font": 4356, "\u0120events": 4357, ".min": 4358, "\u0120invol": 4359, "za": 4360, "\u0120whole": 4361, "\u0120needed": 4362, "\u0120likely": 4363, "rief": 4364, "ORM": 4365, "version": 4366, "\u0120fight": 4367, "\u0120ein": 4368, "Frame": 4369, "gen": 4370, "\u0120Out": 4371, "avigation": 4372, "Length": 4373, "illed": 4374, "quence": 4375, "\u0120!==": 4376, "\u0120Software": 4377, "\u0120writing": 4378, "\u0120rate": 4379, "'],\u010a": 4380, "Panel": 4381, "inner": 4382, "\u0120[\"": 4383, "\u0120tw": 4384, "cd": 4385, "\u0120;\u010a": 4386, "_state": 4387, "\u0120Sm": 4388, "\u0120Mark": 4389, "))\u010a\u010a": 4390, "prot": 4391, "\u0120Mr": 4392, "method": 4393, "ustomer": 4394, "Icon": 4395, "\u0120correct": 4396, "(object": 4397, "\u0120More": 4398, "\u0120fall": 4399, "\u0120vol": 4400, "\u0120development": 4401, "ently": 4402, "\u0120si": 4403, "medi": 4404, "ving": 4405, "PP": 4406, "aker": 4407, "\u0120indu": 4408, "\u0120elif": 4409, "\u0120pret": 4410, "\u0120believe": 4411, "ns": 4412, "omet": 4413, "\u0120Intern": 4414, "Rect": 4415, "So": 4416, ".error": 4417, "Read": 4418, "\u0120features": 4419, "\u0120minutes": 4420, "---": 4421, "asing": 4422, "cret": 4423, "\">\u010d\u010a": 4424, ".annot": 4425, "\u0120collection": 4426, "'.": 4427, "\u0120similar": 4428, "\u0120taken": 4429, "(\"%": 4430, "Order": 4431, "']\u010a": 4432, "-md": 4433, "\u0120TH": 4434, "aced": 4435, "\u0120isn": 4436, "/j": 4437, "\u0120son": 4438, "graph": 4439, "\u0120Integer": 4440, "\u0120necess": 4441, "reen": 4442, "\u0120um": 4443, "\u0120\\<": 4444, "\u0120moment": 4445, "\u0120bring": 4446, "\u0120indic": 4447, "ysis": 4448, "Level": 4449, "verse": 4450, "urrenc": 4451, "_test": 4452, "\u0120entire": 4453, "Down": 4454, "\u0120}\u010a\u010a\u010a": 4455, "(result": 4456, "\u0120Read": 4457, "\u00c3\u00a8": 4458, "Mod": 4459, "\u0120trying": 4460, "\"),\u010a": 4461, "\u0120member": 4462, "\u0120Cor": 4463, "ODO": 4464, "-control": 4465, "untime": 4466, "\u0120Sim": 4467, "Dialog": 4468, "plot": 4469, "_on": 4470, "\u0120phys": 4471, "}/": 4472, "\u0120namespace": 4473, "\u0109\u010d\u010a": 4474, "acc": 4475, "Player": 4476, "ARE": 4477, "\u0120foot": 4478, "\u0120board": 4479, "part": 4480, "\u0120sus": 4481, "wise": 4482, "\u0120Mc": 4483, "\u0120push": 4484, "ATA": 4485, "\u0120please": 4486, "ried": 4487, "weet": 4488, "bit": 4489, "ided": 4490, "VE": 4491, "\u0120Sw": 4492, "UB": 4493, "\u0120types": 4494, "edia": 4495, "\u0120clos": 4496, "acebook": 4497, "When": 4498, "\u0120edit": 4499, "igger": 4500, "\u0120energ": 4501, "Container": 4502, "\u0120phot": 4503, "\u0120Count": 4504, "\u0120Europe": 4505, ".Is": 4506, "\u0120Russ": 4507, "peed": 4508, "\u0120Str": 4509, "\u0120py": 4510, "\u0120cult": 4511, "\u0120defined": 4512, "ccount": 4513, "\u0120obt": 4514, ".Location": 4515, "\u0120thread": 4516, "ille": 4517, "\u0120instead": 4518, "strong": 4519, "\u0120Sec": 4520, "URE": 4521, "\u0120idea": 4522, ".se": 4523, "emy": 4524, "selected": 4525, "Connection": 4526, "acing": 4527, "thread": 4528, ".next": 4529, "\u0120coll": 4530, "\u0120film": 4531, "istic": 4532, "\u0120compet": 4533, "\u0120conn": 4534, "though": 4535, "\u0120compan": 4536, "ocket": 4537, "\u0120teach": 4538, "=(": 4539, "\u0120phone": 4540, "\u0120active": 4541, "delete": 4542, "tries": 4543, "\u0120mo": 4544, "\u0120death": 4545, "});\u010a\u010a": 4546, "ocol": 4547, "Widget": 4548, "\u0120article": 4549, "rodu": 4550, "andid": 4551, "\u00d1\u012d": 4552, "\u0120Cr": 4553, "ka": 4554, "():": 4555, "lood": 4556, "\u0109\u0109\u0109\u010a": 4557, "\u0120almost": 4558, "\u0120sell": 4559, "ervlet": 4560, "rip": 4561, "Unit": 4562, "\u0120applic": 4563, "\u0120connect": 4564, "\u0120feature": 4565, "\u0120via": 4566, "'),": 4567, "\u0120lim": 4568, "\u0120\u0120\u0120\u0120\u0120\u0120\u0120\u0120\u0120\u0120\u0120\u0120\u0120\u0120\u0120\u0120\u0120\u0120\u0120\u0120\u0120\u0120\u0120\u0120\u0120\u0120\u0120\u0120\u0120\u0120\u0120\u0120\u0120\u0120\u0120\u0120\u0120\u0120\u0120\u0120\u0120\u0120\u0120\u0120\u0120\u0120\u0120": 4569, "\u0120Gu": 4570, "Engine": 4571, "\u0120ens": 4572, "\u0120environment": 4573, "block": 4574, "HERE": 4575, "NULL": 4576, "gy": 4577, "tag": 4578, ")).": 4579, "exp": 4580, "\u0120compl": 4581, "\u0120install": 4582, "\u0120complete": 4583, "queue": 4584, "atural": 4585, "\u0120general": 4586, "thon": 4587, "\u0120asked": 4588, "ores": 4589, "(res": 4590, "\u0120reserved": 4591, "SP": 4592, "\u0120\u00e2\u0122\u00a6": 4593, "\u00c5\u0124": 4594, "\u0120signific": 4595, "Off": 4596, "\u0120\u0120\u0120\u0120\u0120\u0120\u0120\u0120\u0120\u0120\u0120\u0120\u0120\u0120\u0120\u0120\u0120\u0120\u0120\u0120\u0120\u0120\u0120\u0120\u0120\u0120\u0120\u0120\u0120": 4597, "\u0120Ag": 4598, "\u0120Just": 4599, "\u0120Error": 4600, "\u0120infl": 4601, "adata": 4602, "\u0120icon": 4603, "asks": 4604, "''": 4605, "_LO": 4606, "?.": 4607, "account": 4608, "\u0120(*": 4609, "')\u010a\u010a": 4610, "rap": 4611, "_var": 4612, "\u0120FOR": 4613, "\u0120party": 4614, "\u0120Your": 4615, "cat": 4616, "stry": 4617, ".new": 4618, "boot": 4619, "\u0120Nov": 4620, "\u0120vector": 4621, "\u0120normal": 4622, "\u0120further": 4623, "Repository": 4624, "\u0120database": 4625, "attle": 4626, "\u0120music": 4627, "\u0120speed": 4628, "\u0120doc": 4629, "process": 4630, "IGHT": 4631, ".parse": 4632, "\u0120taking": 4633, "\u0120viol": 4634, "ceed": 4635, "\u0120After": 4636, "\u0120forward": 4637, "\u0120crit": 4638, "\"/>\u010a": 4639, "rot": 4640, "\u0120failed": 4641, "efore": 4642, "\u0120concern": 4643, "oe": 4644, "ba": 4645, "\u0120sender": 4646, "\u0120term": 4647, "has": 4648, "=\"#": 4649, "\u0120potential": 4650, "Num": 4651, "\u0120published": 4652, ".close": 4653, "\u0120Image": 4654, "straint": 4655, "UD": 4656, "\u0120Ob": 4657, "\u0120probably": 4658, "lim": 4659, "\":\u010a": 4660, "olume": 4661, "\u0120consum": 4662, "ague": 4663, "ensions": 4664, "\u0120investig": 4665, "-year": 4666, "');": 4667, "-sm": 4668, "\u0120enjoy": 4669, "orig": 4670, "ering": 4671, "cp": 4672, "leased": 4673, "plements": 4674, "\u0120returns": 4675, "pat": 4676, "BO": 4677, "\u0120House": 4678, ".Label": 4679, "\u0120weight": 4680, "ighb": 4681, "\u0120conditions": 4682, "\u0120exception": 4683, "description": 4684, "\u0120trad": 4685, "-to": 4686, "\u0120{}": 4687, "\u0120module": 4688, "END": 4689, ".ap": 4690, ".props": 4691, "\u0120constructor": 4692, "aves": 4693, "\u0120favor": 4694, "\u0120Now": 4695, ";i": 4696, "\u0120Main": 4697, "_k": 4698, "eries": 4699, "\u00e2\u0122\u013bll": 4700, "transform": 4701, "imestamp": 4702, "Pre": 4703, "\u0120mer": 4704, ".res": 4705, "stant": 4706, "Location": 4707, "_NAME": 4708, "\u0120loss": 4709, "\u0120\u010a\u010a": 4710, "net": 4711, "\u0120engine": 4712, "Block": 4713, "\u0120issues": 4714, "\u0120parse": 4715, "\u0120Bar": 4716, "\u0120stay": 4717, "\u0120JSON": 4718, "\u0120dom": 4719, "airs": 4720, "wner": 4721, "\u0120lower": 4722, "\",\u010d\u010a": 4723, "\u0120Dem": 4724, "ufact": 4725, "\u0120ps": 4726, "\u0120perfect": 4727, "RL": 4728, "\u0120educ": 4729, "ls": 4730, "emory": 4731, "ARRANT": 4732, "uge": 4733, "\u0120exact": 4734, ".key": 4735, "alled": 4736, "ech": 4737, "ief": 4738, "\\/": 4739, "oke": 4740, "\u0120former": 4741, "alloc": 4742, "\u0120six": 4743, "ida": 4744, "\u0120margin": 4745, "\u0120heart": 4746, "ald": 4747, "pack": 4748, ".getElementById": 4749, "\u0120WARRANT": 4750, "\u0120rather": 4751, "\u0120building": 4752, "erman": 4753, "lice": 4754, "\u0120questions": 4755, "izes": 4756, "lege": 4757, "irectory": 4758, "\u0120je": 4759, "\u0120cas": 4760, "props": 4761, "utf": 4762, "\u0120security": 4763, "\u0120however": 4764, "weight": 4765, "\u0120inside": 4766, "\u0120president": 4767, "Char": 4768, "\u0120WITH": 4769, ".map": 4770, "\u0120graph": 4771, "\u0120tag": 4772, "_status": 4773, "\u0120attempt": 4774, "opp": 4775, "uses": 4776, "\u0109const": 4777, "\u0120round": 4778, ",$": 4779, "\u0120friends": 4780, "Email": 4781, "?>": 4782, "Resource": 4783, "KEY": 4784, "osp": 4785, ".query": 4786, "\u0120North": 4787, "ables": 4788, "istrib": 4789, "_class": 4790, "ello": 4791, "That": 4792, "\u00d0\u00ba": 4793, "pecially": 4794, "\u0120President": 4795, "\u0120campaign": 4796, "\u0120alt": 4797, "area": 4798, "\u0120chall": 4799, "\u0120opport": 4800, ".Con": 4801, "\u0120energy": 4802, "like": 4803, ".string": 4804, "ington": 4805, ")*": 4806, "yy": 4807, "\u0120profession": 4808, "irth": 4809, "\u0120seg": 4810, "\u00e6\u013e": 4811, "\u0120hor": 4812, "iers": 4813, "can": 4814, "\u0120behind": 4815, "Product": 4816, "fg": 4817, "\u0120Sk": 4818, ".jpg": 4819, "?:": 4820, "];\u010a\u010a": 4821, "\u0120callback": 4822, "\u0120Http": 4823, "\u00d1\u012e": 4824, "long": 4825, "MS": 4826, "ATH": 4827, "\u0120raise": 4828, "\u0120wanted": 4829, "rown": 4830, "utor": 4831, "lt": 4832, "]=": 4833, "eline": 4834, "MA": 4835, "\u0120separ": 4836, "cs": 4837, "semb": 4838, "Dis": 4839, "bserv": 4840, "\u0120Will": 4841, "\u0120policy": 4842, "\u0120third": 4843, "phone": 4844, "\u0120bed": 4845, "/g": 4846, ".__": 4847, "\u0120Inc": 4848, "izing": 4849, ".remove": 4850, "instance": 4851, ".type": 4852, "\u0120serv": 4853, "Each": 4854, "\u0120har": 4855, "\u0120Message": 4856, "(key": 4857, "SELECT": 4858, "Pos": 4859, "));\u010d\u010a": 4860, "\u0120recomm": 4861, "\u0120training": 4862, "\u0120Ent": 4863, "\u0120Char": 4864, "icht": 4865, "(file": 4866, "\u0120prior": 4867, "Game": 4868, "\u0120exit": 4869, "Params": 4870, ".core": 4871, "PC": 4872, "nes": 4873, "anced": 4874, "(request": 4875, "Password": 4876, "}>\u010a": 4877, "\u0120mag": 4878, "\u0120release": 4879, "\u0120shall": 4880, "udent": 4881, "\u0120South": 4882, "ando": 4883, ":'": 4884, ".TabIndex": 4885, "sk": 4886, "anner": 4887, "isset": 4888, "\u0120outside": 4889, "ledge": 4890, "\u0120\u00e5": 4891, "\u0120Rob": 4892, "\u0120imm": 4893, "!\u010a": 4894, "\u0120Web": 4895, "Des": 4896, "BC": 4897, "ancial": 4898, "Route": 4899, "Dec": 4900, "ferences": 4901, "\u0120purch": 4902, "\u0120Model": 4903, "ctor": 4904, "gn": 4905, "_start": 4906, "_un": 4907, ".*": 4908, "ises": 4909, "\u0120ground": 4910, "\u0120unique": 4911, "\u0120beaut": 4912, "{\"": 4913, "\u0120pour": 4914, "\u0120Oct": 4915, "\u0120tree": 4916, "sets": 4917, "_res": 4918, "')->": 4919, "_reg": 4920, "(\"\\": 4921, "\u0120byte": 4922, "Bl": 4923, "\u0120dating": 4924, "\u0120matter": 4925, "\u0120Rem": 4926, "\u0120'../": 4927, "\u0120Aug": 4928, "\u0120La": 4929, "\u0120$(": 4930, "ournal": 4931, "iam": 4932, "\u0120shows": 4933, "write": 4934, "\u0120ball": 4935, "\u0120simply": 4936, "\u0120fast": 4937, "\u0120memory": 4938, "ASS": 4939, "\u0120Of": 4940, "oved": 4941, "ante": 4942, "aul": 4943, "istry": 4944, ")));\u010a": 4945, "\u0120fit": 4946, "<string": 4947, "\u0120political": 4948, "ancel": 4949, "_.": 4950, "card": 4951, ".current": 4952, "och": 4953, "_image": 4954, "\\t": 4955, "#\u010a": 4956, "(L": 4957, "\u0120industry": 4958, "coming": 4959, "\u0120extra": 4960, "\u0120reported": 4961, ".start": 4962, "\u0120resources": 4963, "\u0120img": 4964, "flow": 4965, "_EX": 4966, "(null": 4967, "\u0120Pre": 4968, "\u0120wrong": 4969, "interface": 4970, "Parameter": 4971, "ners": 4972, "\u00e1\u00bb": 4973, "ture": 4974, "ersist": 4975, "ountry": 4976, "\u0120seems": 4977, "alance": 4978, "dest": 4979, "\u0109String": 4980, "\u0120maint": 4981, "\u0120unit": 4982, "acters": 4983, "\u0120TR": 4984, "iful": 4985, "exports": 4986, "project": 4987, "Application": 4988, "legate": 4989, "\u0120takes": 4990, "term": 4991, "\u0120etc": 4992, "uster": 4993, "\u0120appear": 4994, "address": 4995, "\u0120fem": 4996, "hs": 4997, "\u0120hom": 4998, ",-": 4999, "\u0120difficult": 5000, "\u0120coming": 5001, "Open": 5002, "\u0120settings": 5003, "\u0120War": 5004, "\u0120Then": 5005, "\u0120autom": 5006, "\u0120Foundation": 5007, "\u0120quite": 5008, "Description": 5009, "\u0120blog": 5010, "iqu": 5011, "PS": 5012, "_field": 5013, "Json": 5014, "SSION": 5015, "\u0120Sch": 5016, "\u0120LO": 5017, "\u0120descri": 5018, "\u0120everyone": 5019, "\u0120pretty": 5020, "\u0120longer": 5021, "\u0120menu": 5022, "\u0120currently": 5023, "sec": 5024, "\u0120relationship": 5025, "################################": 5026, "\u0120Map": 5027, "aset": 5028, "\u0120parameters": 5029, "\u0120crush": 5030, "\"\u010d\u010a": 5031, "ILITY": 5032, "igration": 5033, "\u0120cout": 5034, "total": 5035, "\u0120names": 5036, "ndef": 5037, "\");": 5038, "riend": 5039, "ynamic": 5040, "\u0120effort": 5041, "\u0120actual": 5042, "\u0120fields": 5043, "OUN": 5044, "ters": 5045, "\u0120fix": 5046, "_model": 5047, "\u0120cases": 5048, "CA": 5049, "My": 5050, "Interface": 5051, "\u0120SE": 5052, "]]": 5053, "alle": 5054, "\u0120National": 5055, "\u0120ArrayList": 5056, "inline": 5057, ".V": 5058, "ara": 5059, "refix": 5060, "asc": 5061, "Reader": 5062, "\u0120\u00d0\u00bf": 5063, "astic": 5064, "(()": 5065, "Cl": 5066, ".annotation": 5067, "\u0120performance": 5068, "aily": 5069, ".toString": 5070, ".net": 5071, "views": 5072, ".end": 5073, "ayers": 5074, "late": 5075, "\u0120Apr": 5076, "ederal": 5077, "'])": 5078, ".body": 5079, "\u0120higher": 5080, "_fl": 5081, "cr": 5082, "alert": 5083, "_node": 5084, "\u0120Google": 5085, "\u0120itself": 5086, "Auth": 5087, "urrency": 5088, "\u0120significant": 5089, "append": 5090, "\u0120respect": 5091, "strap": 5092, "\u0120una": 5093, "riteria": 5094, "PORT": 5095, ".apache": 5096, "Output": 5097, "\u0120progress": 5098, "\u0120mid": 5099, "\u0120Microsoft": 5100, "\u0120resource": 5101, "ablish": 5102, "\u0120dim": 5103, ".load": 5104, ".App": 5105, "\u0120direction": 5106, "\u0120additional": 5107, "\u0120\u0120\u0120\u0120\u0120\u0120\u0120\u0120\u0120\u0120\u0120\u0120\u0120\u0120\u0120\u0120\u0120\u0120\u0120\u0120\u0120\u0120\u0120\u0120": 5108, "\u0120numbers": 5109, "\u0120companies": 5110, ".Th": 5111, "\u0120sound": 5112, "username": 5113, "\u0120statement": 5114, "\u0120alert": 5115, "\u0120contract": 5116, "home": 5117, "_length": 5118, ".Component": 5119, "ev": 5120, ".Ex": 5121, "\u00ef\u00bc\u013c": 5122, "\";": 5123, "\u0120High": 5124, "\u0120)\u010a\u010a": 5125, "\u0120Point": 5126, "oph": 5127, "\u0120lines": 5128, "->_": 5129, "\")\u010a\u010a": 5130, "ox": 5131, "application": 5132, "\u0120]\u010a": 5133, "\u010a\u010a\u010a\u010a\u010a\u010a": 5134, "\u0120soon": 5135, "ctions": 5136, "inger": 5137, "\u0120join": 5138, "\u0120Pe": 5139, "\u0120\u00eb": 5140, "\u0120las": 5141, ".E": 5142, "css": 5143, "/or": 5144, "\u0120Start": 5145, "\u0120TO": 5146, "\u0120subs": 5147, "conn": 5148, "components": 5149, "DEBUG": 5150, "quare": 5151, "Function": 5152, "endar": 5153, ".index": 5154, "\u0120fill": 5155, "\u00c4\u013b": 5156, "\u0120choose": 5157, "how": 5158, "\u0120America": 5159, "assets": 5160, "------------": 5161, "\u0120Value": 5162, "\u0120office": 5163, "\u0120veh": 5164, "\u0120transform": 5165, "\u0120Art": 5166, "\u0120inde": 5167, "\u0120fn": 5168, "\u0120implements": 5169, "ango": 5170, "plete": 5171, "+\"": 5172, "tmp": 5173, "amily": 5174, "\u0120hash": 5175, "missions": 5176, "EST": 5177, "gt": 5178, "Provider": 5179, "\u0120\u0120\u0120\u0120\u0120\u0120\u0120\u0120\u0120\u0120\u0120\u0120\u0120\u0120\u0120\u0120\u0120\u0120\u0120\u0120\u0120\u0120": 5180, "\u0120flag": 5181, "\u0120particip": 5182, "den": 5183, "\u0120Returns": 5184, "\u0120note": 5185, "\u00c3\u00bcr": 5186, "pm": 5187, "ideos": 5188, "\u0120specified": 5189, "\u0120EN": 5190, "ester": 5191, "olid": 5192, "\u0120upon": 5193, "(std": 5194, "\u0109v": 5195, "\u0120'\\": 5196, "uz": 5197, "\u0120vert": 5198, "\u0120vict": 5199, "\u0109self": 5200, "\u0120\"$": 5201, ".k": 5202, "\u0120groups": 5203, "github": 5204, "lang": 5205, "\u0120mut": 5206, "TO": 5207, "\u0120ve": 5208, "\u0120Please": 5209, ";\u010a\u010a\u010a": 5210, "access": 5211, "\u0120{\"": 5212, "rea": 5213, "\u0120risk": 5214, "icker": 5215, "oggle": 5216, "\u0109while": 5217, "ANG": 5218, ".send": 5219, "\u0120woman": 5220, "\u0120gets": 5221, "\u0120ign": 5222, "\u0120Id": 5223, "_log": 5224, "ONE": 5225, "\u0120evid": 5226, "\u0120Har": 5227, "_sub": 5228, "\u0120endl": 5229, "\u0120included": 5230, "());\u010a\u010a": 5231, "\u0120Ap": 5232, "igr": 5233, "\u0120sem": 5234, "\u0120Black": 5235, "doc": 5236, "_table": 5237, "\u0120\u0120\u0120\u0120\u0120\u0120\u0120\u0120\u0120\u0120\u0120\u0120\u0120\u0120\u0120\u0120\u0120\u0120\u0120\u0120\u0120\u0120\u0120\u0120\u0120\u0120\u0120\u0120\u0120\u0120\u0120\u0120\u0120\u0120\u0120\u0120\u0120\u0120\u0120\u0120\u0120\u0120\u0120\u0120\u0120\u0120\u0120\u0120\u0120\u0120\u0120\u0120\u0120\u0120\u0120\u0120\u0120\u0120\u0120\u0120\u0120\u0120\u0120\u0120": 5238, "-up": 5239, "\u0120cause": 5240, "\u0120..": 5241, "\u0120van": 5242, "_dict": 5243, "\u0120focus": 5244, "IND": 5245, "CESS": 5246, ".Log": 5247, "\u0120multiple": 5248, "ido": 5249, "\u0120regard": 5250, "-M": 5251, "andler": 5252, "ourse": 5253, "\u0120deg": 5254, ".U": 5255, "\u0120addition": 5256, "\u0120various": 5257, "\u0120receive": 5258, "\u00d0\u00b5\u00d0\u00bd": 5259, "\u0120HT": 5260, "Obj": 5261, "DF": 5262, "\u0120increase": 5263, "\u0120Open": 5264, "];": 5265, "\u0120commit": 5266, "?\u010a": 5267, "ategories": 5268, "atory": 5269, "ship": 5270, "\u0120Mich": 5271, "\u0120html": 5272, "romise": 5273, "\u0120leave": 5274, "\u0120strateg": 5275, "aven": 5276, "\u0120Console": 5277, "known": 5278, "-n": 5279, "_LE": 5280, ".component": 5281, "\u0120bre": 5282, "Session": 5283, "iance": 5284, "\u0120align": 5285, "typedef": 5286, "_result": 5287, "\u0120WHERE": 5288, ".split": 5289, "\u0120reading": 5290, "FAULT": 5291, "\u0120clo": 5292, "\u0120notice": 5293, "_pr": 5294, "arter": 5295, "\u0120lock": 5296, "\u0120standard": 5297, "etic": 5298, "ellow": 5299, "\u0120padding": 5300, "\u0120His": 5301, "\u0120states": 5302, "_cast": 5303, "(P": 5304, "aa": 5305, "\u0120internal": 5306, "ean": 5307, "\u0120PRO": 5308, "\u0120Key": 5309, "\u0120especially": 5310, "ming": 5311, "\u0120cross": 5312, "\u0120national": 5313, "_object": 5314, "filter": 5315, "\u0120script": 5316, ".update": 5317, "_i": 5318, "\u0120Assert": 5319, "/core": 5320, "%%%%": 5321, "\u0120problems": 5322, "istor": 5323, "\u0120.=": 5324, "\u0120arch": 5325, "\u0120written": 5326, "\u0120milit": 5327, "MENT": 5328, ".ch": 5329, "cape": 5330, "\u0120Mus": 5331, "_config": 5332, "\u0120API": 5333, "foot": 5334, "\u0120images": 5335, "endl": 5336, ".In": 5337, "First": 5338, "\u0120platform": 5339, ".prot": 5340, "Option": 5341, "ste": 5342, "\u0120TODO": 5343, "\u0120force": 5344, ".cont": 5345, "\u0109echo": 5346, "\u0120Dav": 5347, "Ptr": 5348, "(B": 5349, "RT": 5350, "\u0120Base": 5351, "]['": 5352, "\u0120announc": 5353, "console": 5354, "\u0120Py": 5355, "ds": 5356, ".as": 5357, "\u0120prevent": 5358, "apan": 5359, "\u0120{'": 5360, "}</": 5361, "\u0120Service": 5362, "\u0120Sen": 5363, "ador": 5364, "profile": 5365, "Top": 5366, "\u0120iter": 5367, "po": 5368, "IES": 5369, "JSON": 5370, "IE": 5371, "iant": 5372, "\u00e3\u0122\u0123": 5373, "_j": 5374, "\u0120Sept": 5375, "_map": 5376, "bum": 5377, "(context": 5378, "\u0120Home": 5379, "ians": 5380, "GB": 5381, "\u0120living": 5382, "\u0120pattern": 5383, "(input": 5384, "icient": 5385, "Core": 5386, "\u0120entity": 5387, "\u0120integ": 5388, "Changed": 5389, "\u0120useful": 5390, ".info": 5391, "\u0120tool": 5392, "(item": 5393, "\u0120ok": 5394, "\u0120feed": 5395, "IX": 5396, "\u00c3\u00a9s": 5397, "\u0120News": 5398, "remove": 5399, "erry": 5400, "\u0109\u0109\u0109\u0109\u0109\u0109\u0109\u0109\u0109": 5401, "ipment": 5402, "ares": 5403, "Do": 5404, "Current": 5405, ".content": 5406, ".Group": 5407, "ustral": 5408, "\u0120\u00d1\u0123": 5409, "})": 5410, "\u0120popular": 5411, "\u0120stre": 5412, "\u0120methods": 5413, "_ERROR": 5414, "Left": 5415, "cal": 5416, "bsp": 5417, ".ToString": 5418, "\u0120dir": 5419, "\u0120allowed": 5420, "\u0120impact": 5421, "\")]\u010a": 5422, ".config": 5423, "\u0120elements": 5424, "\u0120prote": 5425, "\u0120train": 5426, ".tr": 5427, "rs": 5428, "\u0120Republic": 5429, "\u0120Task": 5430, "aries": 5431, "(D": 5432, "(get": 5433, "\u00e2\u0122\u00a6\u010a\u010a": 5434, "\u0120related": 5435, "\u0120vers": 5436, "\u0120sil": 5437, "\u0120\"\";\u010a": 5438, "\u0120cmd": 5439, "\u0120technology": 5440, ".width": 5441, "Float": 5442, "\u0120Use": 5443, "Body": 5444, "should": 5445, ".join": 5446, "Font": 5447, "llum": 5448, "ycle": 5449, "\u0120Brit": 5450, "\u0120mit": 5451, "\u0120scale": 5452, "\u0120(_": 5453, "ernel": 5454, "\"))\u010a": 5455, "\u0120score": 5456, "/v": 5457, "\u0120student": 5458, "UC": 5459, ".show": 5460, "\u0120average": 5461, "Enabled": 5462, "(ex": 5463, "common": 5464, "imation": 5465, ":@\"": 5466, "chie": 5467, "\u0120...\u010a\u010a": 5468, "river": 5469, "\u0120March": 5470, "category": 5471, "fin": 5472, "\u0120court": 5473, "\u00d0\u00b2": 5474, "Server": 5475, "\u0120container": 5476, "-st": 5477, "_for": 5478, "\u0120parts": 5479, "\u0120decision": 5480, "obs": 5481, "oub": 5482, "mitted": 5483, "\u0120$('#": 5484, "\u0120saw": 5485, "\u0120approach": 5486, "ICE": 5487, "\u0120saying": 5488, "\u0120anyone": 5489, "meta": 5490, "SD": 5491, "\u0120song": 5492, "display": 5493, "Oper": 5494, "outes": 5495, "\u0120channel": 5496, "\u0120changed": 5497, "\u00c3\u00aa": 5498, "\u0120finally": 5499, "_number": 5500, "Please": 5501, "\u00e0\u00a4": 5502, "oring": 5503, "-re": 5504, "\u0120kill": 5505, "\u0120drug": 5506, "window": 5507, "\u0120convert": 5508, "ombre": 5509, "\u0120ways": 5510, "Helper": 5511, "\u0120First": 5512, "(__": 5513, "urity": 5514, "\u0120Windows": 5515, "ees": 5516, "\u0120mat": 5517, "rapper": 5518, "\u0120plus": 5519, "anges": 5520, "\"].": 5521, "azon": 5522, "/t": 5523, "lat": 5524, "aste": 5525, "\u0120profile": 5526, "\u0120ready": 5527, "#ifndef": 5528, "rote": 5529, "\u0120sense": 5530, "Gener": 5531, "\u0120Config": 5532, "omy": 5533, "\u0120June": 5534, "\u0120latest": 5535, "\u0120saf": 5536, "\u0120region": 5537, "\u0120deep": 5538, "witch": 5539, "\u0120Park": 5540, "}`": 5541, "\u0120From": 5542, "II": 5543, "\u0120cv": 5544, "\u0120reach": 5545, "\u0120counter": 5546, "\u0120Work": 5547, "\u0120URL": 5548, "\u0120Update": 5549, "',\u010d\u010a": 5550, "\u0120immedi": 5551, "close": 5552, "ados": 5553, "ferred": 5554, "\u0120weeks": 5555, "urg": 5556, "\u0120damage": 5557, "\u0120lost": 5558, "ani": 5559, "_lo": 5560, "\u0120himself": 5561, "\u0120dog": 5562, ")]\u010a": 5563, "\u00ef\u00bf": 5564, "pir": 5565, "tt": 5566, "\u0120paper": 5567, "\u0120thems": 5568, "second": 5569, "\u0120staff": 5570, "\u0120Input": 5571, "\"+": 5572, "\u0120Facebook": 5573, "\u0120alloc": 5574, "\u0120sched": 5575, "ACE": 5576, "\u0120themselves": 5577, "\u0120Component": 5578, "\u0120driver": 5579, "ja": 5580, "(path": 5581, "\u0120category": 5582, "alls": 5583, "pu": 5584, "lluminate": 5585, "\u0120Action": 5586, ".button": 5587, "\u0120GL": 5588, "istics": 5589, "\u0120oil": 5590, "\u0120stock": 5591, ">'": 5592, "\u0120dead": 5593, "VAL": 5594, "QUE": 5595, "************************************************************************": 5596, "\u0120charg": 5597, "Return": 5598, "\u0120ful": 5599, "dom": 5600, "\u0120rules": 5601, "\u0120modify": 5602, "\u0120eval": 5603, "ham": 5604, "atement": 5605, "\\<": 5606, "ula": 5607, "=False": 5608, "RA": 5609, "\u0120contains": 5610, "\u0120stack": 5611, "mar": 5612, "\u0120{}\u010a": 5613, "\u0120undefined": 5614, "Ass": 5615, "\u0120China": 5616, "vey": 5617, "*\u010a": 5618, "\u0120playing": 5619, ")/": 5620, "actor": 5621, "\u0120bottom": 5622, "lier": 5623, "\u0120Number": 5624, "\u0120couple": 5625, "DC": 5626, "\u0120SO": 5627, "gor": 5628, ".setText": 5629, "success": 5630, "command": 5631, "Filter": 5632, "\u0120Our": 5633, "_item": 5634, "\u0120ctx": 5635, "\u0120road": 5636, "Version": 5637, "case": 5638, "urt": 5639, "avior": 5640, "ych": 5641, "sembly": 5642, "\u0120Product": 5643, "\u0120held": 5644, "afe": 5645, "\u0120includes": 5646, "<quote": 5647, "\u0120avoid": 5648, "\u0120Fin": 5649, "\u0120Mod": 5650, "\u0120tab": 5651, "ano": 5652, "\u00c3\u00b1": 5653, "ipping": 5654, "-e": 5655, "\u0120insert": 5656, "target": 5657, "chan": 5658, ".Model": 5659, "IME": 5660, "\\\u010a": 5661, "\u0120machine": 5662, "avy": 5663, "\u0120NO": 5664, "\u0120Inter": 5665, "\u0120operation": 5666, "modal": 5667, "Tag": 5668, "]:": 5669, "\u0120production": 5670, "\u0120areas": 5671, "\u0120ren": 5672, "_from": 5673, "nbsp": 5674, "\u0120operator": 5675, "men": 5676, "apped": 5677, "_per": 5678, "zen": 5679, "(\".": 5680, ".save": 5681, "=\"{{": 5682, "\u0120tor": 5683, "(response": 5684, "\u0120candid": 5685, "\u0120conv": 5686, "ailed": 5687, "\u0120Lib": 5688, "comp": 5689, "ura": 5690, "\u00ef\u00bf\u00bd": 5691, "\u0120Here": 5692, "\u0120argument": 5693, "hood": 5694, "\u0120establish": 5695, "ography": 5696, "\u0120onClick": 5697, "ambda": 5698, "\u0120sch": 5699, "\u0120movie": 5700, "\u0120sec": 5701, "\u0120activity": 5702, "\u00d8\u00a7": 5703, "\u0120sql": 5704, "_all": 5705, "incip": 5706, "\u0120provides": 5707, "\u0120sys": 5708, "acket": 5709, "\u0120wasn": 5710, "\u0120uses": 5711, "\u0120Function": 5712, ".google": 5713, "\u0120Result": 5714, "Visible": 5715, "agma": 5716, "elcome": 5717, "\u0120Sy": 5718, "\u0120Cent": 5719, "ALSE": 5720, "aci\u00c3\u00b3n": 5721, "EXT": 5722, "\u0120license": 5723, "\u0120Long": 5724, "\u0120accom": 5725, "\u0120ability": 5726, ".height": 5727, "Active": 5728, "ological": 5729, "oly": 5730, ")),": 5731, ".Se": 5732, "\u0120parameter": 5733, "prite": 5734, "ABILITY": 5735, ".service": 5736, "\u0120Group": 5737, "_query": 5738, "\u0120Item": 5739, "ining": 5740, "\u0120jud": 5741, "ims": 5742, "fix": 5743, "inder": 5744, "agram": 5745, "\u0120functions": 5746, "\u0120experi": 5747, "\u0120Em": 5748, "\u0120rot": 5749, "\u0120pen": 5750, ".btn": 5751, "\u0120AS": 5752, "#ifdef": 5753, "\u0120choice": 5754, "\u0120Page": 5755, "_PRO": 5756, "QU": 5757, "\u00e5\u0131": 5758, "antity": 5759, "\u00c2\u0143": 5760, "words": 5761, "\u0120readonly": 5762, "\u0120flex": 5763, "protected": 5764, "\u0120Any": 5765, "\u0120characters": 5766, "enced": 5767, "\u0120July": 5768, "iler": 5769, "Card": 5770, "urance": 5771, "\u0120rev": 5772, ".event": 5773, "aly": 5774, "\u0120wonder": 5775, "\u0120Port": 5776, "\u0120legal": 5777, "role": 5778, "\u0120ten": 5779, "\u0120goes": 5780, "MP": 5781, "white": 5782, "):\u010d\u010a": 5783, "))\u010d\u010a": 5784, "\u0120reference": 5785, "\u0120mis": 5786, "\u0120Project": 5787, "icks": 5788, ">&": 5789, "CON": 5790, "\u0120repl": 5791, "\u0120regular": 5792, "Storage": 5793, "ramework": 5794, "\u0120goal": 5795, "\u0120touch": 5796, ".widget": 5797, "\u0120built": 5798, "des": 5799, "Part": 5800, "(re": 5801, "\u0120worth": 5802, "hib": 5803, "game": 5804, "\u0120\u00d0\u00b2": 5805, "acion": 5806, "\u0120White": 5807, "(type": 5808, "(`": 5809, "\u0120natural": 5810, "\u0120inj": 5811, "\u0120calcul": 5812, "\u0120April": 5813, ".List": 5814, "\u0120associated": 5815, "\u0109System": 5816, "~~": 5817, "=[": 5818, "\u0120storage": 5819, "\u0120bytes": 5820, "\u0120travel": 5821, "\u0120sou": 5822, "\u0120passed": 5823, "!=": 5824, "ascript": 5825, ".open": 5826, "\u0120grid": 5827, "\u0120bus": 5828, "\u0120recogn": 5829, "Ab": 5830, "\u0120hon": 5831, "\u0120Center": 5832, "\u0120prec": 5833, "build": 5834, "HTML": 5835, "\u0120San": 5836, "\u0120countries": 5837, "aled": 5838, "token": 5839, "kt": 5840, "\u0120qual": 5841, "Last": 5842, "adow": 5843, "\u0120manufact": 5844, "idad": 5845, "jango": 5846, "Next": 5847, "xf": 5848, ".a": 5849, "\u0120porno": 5850, "\u0120PM": 5851, "erve": 5852, "iting": 5853, "_th": 5854, "ci": 5855, "=None": 5856, "gs": 5857, "\u0120login": 5858, "atives": 5859, "']);\u010a": 5860, "\u00c4\u0127": 5861, "\u0120ill": 5862, "IA": 5863, "children": 5864, "DO": 5865, "\u0120levels": 5866, "\u0120{{": 5867, "\u0120looks": 5868, "\u0120\"#": 5869, "ToString": 5870, "\u0120necessary": 5871, "\u0120\u0120\u0120\u010a": 5872, "cell": 5873, "Entry": 5874, "\u0120'#": 5875, "\u0120extrem": 5876, "Selector": 5877, "\u0120placeholder": 5878, "Load": 5879, "\u0120released": 5880, "ORE": 5881, "Enumer": 5882, "\u0120TV": 5883, "SET": 5884, "inq": 5885, "Press": 5886, "\u0120Department": 5887, "\u0120properties": 5888, "\u0120respond": 5889, "Search": 5890, "ael": 5891, "\u0120requ": 5892, "\u0120Book": 5893, "/\u010a": 5894, "(st": 5895, "\u0120financial": 5896, "icket": 5897, "_input": 5898, "\u0120threat": 5899, "(in": 5900, "Strip": 5901, "\u00ec\u013f": 5902, "\u00c3\u00a7\u00c3\u00a3o": 5903, "\u0120evidence": 5904, "));": 5905, "\u0120Bro": 5906, "\u0120[];\u010a": 5907, "\u0120ou": 5908, "buf": 5909, "Script": 5910, "dat": 5911, "\u0120rule": 5912, "#import": 5913, "=\"/": 5914, "Serial": 5915, "\u0120starting": 5916, "[index": 5917, "ae": 5918, "\u0120contrib": 5919, "session": 5920, "_new": 5921, "utable": 5922, "ober": 5923, "\u0120\"./": 5924, "\u0120logger": 5925, "\u0120recently": 5926, "\u0120returned": 5927, "\u010d\u010d\u010a": 5928, ")))\u010a": 5929, "itions": 5930, "\u0120seek": 5931, "\u0120communic": 5932, "\u0120\".": 5933, "\u0120username": 5934, "ECT": 5935, "DS": 5936, "\u0120otherwise": 5937, "\u0120German": 5938, ".aw": 5939, "Adapter": 5940, "ixel": 5941, "\u0120systems": 5942, "\u0120drop": 5943, "\u0120structure": 5944, "\u0120$(\"#": 5945, "encies": 5946, "anning": 5947, "\u0120Link": 5948, "\u0120Response": 5949, "\u0120stri": 5950, "\u00c5\u00bc": 5951, "\u0120DB": 5952, "\u00e6\u0139": 5953, "android": 5954, "submit": 5955, "otion": 5956, "(@": 5957, ".test": 5958, "\u010a\u010a\u010a\u010a\u010a\u010a\u010a\u010a": 5959, "];\u010d\u010a": 5960, "\u0120directly": 5961, "\u0120\"%": 5962, "ris": 5963, "elta": 5964, "AIL": 5965, "){\u010d\u010a": 5966, "mine": 5967, "\u0120\u0120\u0120\u0120\u0120\u0120\u0120\u0120\u0120\u0120\u0120\u0120\u0120\u0120\u0120\u0120\u0120\u0120\u0120\u0120\u0120\u0120\u0120\u0120\u0120\u0120": 5968, "(k": 5969, "bon": 5970, "asic": 5971, "pite": 5972, "___": 5973, "Max": 5974, "\u0120errors": 5975, "\u0120While": 5976, "\u0120arguments": 5977, "\u0120ensure": 5978, "Right": 5979, "-based": 5980, "Web": 5981, "\u0120-=": 5982, "\u0120introdu": 5983, "\u0120Inst": 5984, "\u0120Wash": 5985, "ordin": 5986, "join": 5987, "Database": 5988, "\u0120grad": 5989, "\u0120usually": 5990, "ITE": 5991, "Props": 5992, "?>\u010a": 5993, "\u0120Go": 5994, "@Override": 5995, "REF": 5996, "\u0120ip": 5997, "\u0120Austral": 5998, "\u0120ist": 5999, "ViewById": 6000, "\u0120serious": 6001, "\u0120customer": 6002, ".prototype": 6003, "odo": 6004, "cor": 6005, "\u0120door": 6006, "\u0120WITHOUT": 6007, "\u0120plant": 6008, "\u0120began": 6009, "\u0120distance": 6010, "()).": 6011, "\u0120chance": 6012, "\u0120ord": 6013, "came": 6014, "pragma": 6015, "\u0120protect": 6016, "ragment": 6017, "\u0120Node": 6018, "ening": 6019, "\u00d1\u0129": 6020, "\u0120route": 6021, "\u0120School": 6022, "hi": 6023, "\u0120neighb": 6024, "After": 6025, "licit": 6026, "\u0120contr": 6027, "\u0120primary": 6028, "AA": 6029, ".WriteLine": 6030, "utils": 6031, "\u0120bi": 6032, "Red": 6033, ".Linq": 6034, ".object": 6035, "\u0120leaders": 6036, "unities": 6037, "\u0120gun": 6038, "onth": 6039, "\u0120Dev": 6040, "FILE": 6041, "\u0120comments": 6042, "_len": 6043, "arrow": 6044, "amount": 6045, "Range": 6046, "sert": 6047, "GridView": 6048, "\u0120updated": 6049, "\u0120Mo": 6050, "\u0120inform": 6051, "ociety": 6052, "ala": 6053, "Access": 6054, "\u0120hab": 6055, "\u0120creat": 6056, "_arg": 6057, "\u0120January": 6058, "\u0120Day": 6059, "\")\u010d\u010a": 6060, "uple": 6061, "document": 6062, "gorith": 6063, "menu": 6064, "\u0120Over": 6065, "bb": 6066, ".title": 6067, "_out": 6068, "\u0120led": 6069, "uri": 6070, "\u0120?></": 6071, "gl": 6072, "\u0120bank": 6073, "ayment": 6074, "\u0109printf": 6075, "MD": 6076, "\u0120sample": 6077, "\u0120hands": 6078, "\u0120Version": 6079, "uario": 6080, "\u0120offers": 6081, "ityEngine": 6082, "\u0120shape": 6083, "\u0120sleep": 6084, "_point": 6085, "Settings": 6086, "\u0120achie": 6087, "\u0120sold": 6088, "ota": 6089, ".bind": 6090, "Am": 6091, "\u0120safe": 6092, "Store": 6093, "\u0120shared": 6094, "\u0120priv": 6095, "_VAL": 6096, "\u0120sens": 6097, "){": 6098, "\u0120remember": 6099, "shared": 6100, "element": 6101, "\u0120shoot": 6102, "Vert": 6103, "cout": 6104, "\u0120env": 6105, "_label": 6106, "\u0120>\u010a": 6107, "run": 6108, "\u0120scene": 6109, "(array": 6110, "device": 6111, "_title": 6112, "agon": 6113, "]\u010d\u010a": 6114, "aby": 6115, "\u0120became": 6116, "boolean": 6117, "\u0120park": 6118, "\u0120Code": 6119, "upload": 6120, "riday": 6121, "\u0120September": 6122, "Fe": 6123, "\u0120sen": 6124, "cing": 6125, "FL": 6126, "Col": 6127, "uts": 6128, "_page": 6129, "inn": 6130, "\u0120implied": 6131, "aling": 6132, "\u0120yourself": 6133, ".Count": 6134, "conf": 6135, "\u0120aud": 6136, "_init": 6137, ".)": 6138, "\u0120wrote": 6139, "NG": 6140, ".Error": 6141, "\u00e4\u00bb": 6142, ".for": 6143, "\u0120equal": 6144, "\u0120Request": 6145, "\u0120serial": 6146, "\u0120allows": 6147, "XX": 6148, "\u0120middle": 6149, "chor": 6150, "\u00c3\u00b8": 6151, "erval": 6152, ".Column": 6153, "reading": 6154, "\u0120escort": 6155, "\u0120August": 6156, "\u0120quickly": 6157, "\u0120weap": 6158, "\u0120CG": 6159, "ropri": 6160, "ho": 6161, "\u0120cop": 6162, "(struct": 6163, "\u0120Big": 6164, "\u0120vs": 6165, "\u0120frequ": 6166, ".Value": 6167, "\u0120actions": 6168, "\u0120proper": 6169, "\u0120inn": 6170, "\u0120objects": 6171, "\u0120matrix": 6172, "avascript": 6173, "\u0120ones": 6174, ".group": 6175, "\u0120green": 6176, "\u0120paint": 6177, "ools": 6178, "ycl": 6179, "encode": 6180, "olt": 6181, "comment": 6182, ".api": 6183, "Dir": 6184, "\u0120une": 6185, "izont": 6186, ".position": 6187, "\u0120designed": 6188, "_val": 6189, "avi": 6190, "iring": 6191, "tab": 6192, "\u0120layer": 6193, "\u0120views": 6194, "\u0120reve": 6195, "rael": 6196, "\u0120ON": 6197, "rics": 6198, "np": 6199, "\u0120core": 6200, "());\u010d\u010a": 6201, "Main": 6202, "\u0120expert": 6203, "\u0109\u0109\u010d\u010a": 6204, "_en": 6205, "\u0120/>": 6206, "utter": 6207, "IAL": 6208, "ails": 6209, "\u0120King": 6210, "*/\u010a\u010a": 6211, "\u0120Met": 6212, "_end": 6213, "addr": 6214, "ora": 6215, "\u0120ir": 6216, "Min": 6217, "\u0120surpr": 6218, "\u0120repe": 6219, "\u0120directory": 6220, "PUT": 6221, "-S": 6222, "\u0120election": 6223, "haps": 6224, ".pre": 6225, "cm": 6226, "Values": 6227, "\u0120\"\u010a": 6228, "column": 6229, "ivil": 6230, "Login": 6231, "inue": 6232, "\u0120beautiful": 6233, "\u0120secret": 6234, "(event": 6235, "\u0120chat": 6236, "ums": 6237, "\u0120origin": 6238, "\u0120effects": 6239, "\u0120management": 6240, "illa": 6241, "tk": 6242, "\u0120setting": 6243, "\u0120Cour": 6244, "\u0120massage": 6245, "\u0109end": 6246, "\u0120happy": 6247, "\u0120finish": 6248, "\u0120camera": 6249, "\u0120Ver": 6250, "\u0120Democr": 6251, "\u0120Her": 6252, "(Q": 6253, "cons": 6254, "ita": 6255, "\u0120'.": 6256, "{}": 6257, "\u0109C": 6258, "\u0120stuff": 6259, "\u0120:\u010a": 6260, "\u0120AR": 6261, "Task": 6262, "hidden": 6263, "eros": 6264, "IGN": 6265, "atio": 6266, "\u0120Health": 6267, "olute": 6268, "Enter": 6269, "'>": 6270, "\u0120Twitter": 6271, "\u0120County": 6272, "scribe": 6273, "\u0120=>\u010a": 6274, "\u0120hy": 6275, "fit": 6276, "\u0120military": 6277, "\u0120sale": 6278, "required": 6279, "non": 6280, "bootstrap": 6281, "hold": 6282, "rim": 6283, "-old": 6284, "\u0120Down": 6285, "\u0120mention": 6286, "contact": 6287, "_group": 6288, "oday": 6289, "\u0120town": 6290, "\u0120solution": 6291, "uate": 6292, "elling": 6293, "]->": 6294, "otes": 6295, "ental": 6296, "omen": 6297, "ospital": 6298, "\u0120Sup": 6299, "_EN": 6300, "\u0120slow": 6301, "SESSION": 6302, "\u0120blue": 6303, "ago": 6304, "\u0120lives": 6305, "\u0120^": 6306, ".un": 6307, "inst": 6308, "enge": 6309, "\u0120customers": 6310, "\u0120cast": 6311, "udget": 6312, "\u00ef\u00bc\u0123": 6313, "icens": 6314, "\u0120determin": 6315, "Selected": 6316, "_pl": 6317, "ueue": 6318, "\u0120dark": 6319, "//\u010a\u010a": 6320, "si": 6321, "thern": 6322, "\u0120Japan": 6323, "/w": 6324, "PU": 6325, "\u0120East": 6326, "ovie": 6327, "\u0120package": 6328, "\u0120nor": 6329, "\u0120api": 6330, "bot": 6331, "\"];\u010a": 6332, "_post": 6333, "ulate": 6334, "\u0120club": 6335, "'));\u010a": 6336, "\u0120loop": 6337, "PIO": 6338, "ione": 6339, "shot": 6340, "Initial": 6341, "\u0120played": 6342, "register": 6343, "rought": 6344, "_max": 6345, "acement": 6346, "match": 6347, "raphics": 6348, "AST": 6349, "\u0120existing": 6350, "\u0120complex": 6351, "DA": 6352, ".Ch": 6353, ".common": 6354, "mo": 6355, "\u0120'../../": 6356, "ito": 6357, "\u0120analysis": 6358, "\u0120deliver": 6359, "\u0120\u0120\u0120\u0120\u0120\u0120\u0120\u0120\u0120\u0120\u0120\u0120\u0120\u0120\u0120\u0120\u010a": 6360, "idx": 6361, "\u00c3\u0142": 6362, "ongo": 6363, "\u0120English": 6364, "<!--": 6365, "\u0120computer": 6366, "ENSE": 6367, "\u0120pas": 6368, "\u0120rais": 6369, "Hash": 6370, "\u0120mobile": 6371, "\u0120owner": 6372, "FIG": 6373, "\u0120\u0120\u0120\u0120\u0120\u0120\u0120\u0120\u0120\u0120\u0120\u0120\u0120\u0120\u0120\u0120\u0120\u0120\u0120\u0120\u0120\u0120\u0120\u0120\u0120\u0120\u0120\u0120\u0120\u0120\u0120\u0120\u0120\u0120\u0120\u0120\u0120\u0120\u0120\u0120\u0120\u0120\u0120\u0120\u0120\u0120\u0120\u0120\u0120\u0120\u0120": 6374, "thes": 6375, "\u0120attr": 6376, "wd": 6377, ".time": 6378, "awn": 6379, "\u0120treatment": 6380, "\u0120Ac": 6381, ".View": 6382, "impl": 6383, "more": 6384, "pass": 6385, "\u0120ha": 6386, ".from": 6387, "\u0120leading": 6388, "FFFF": 6389, "(error": 6390, ".ui": 6391, "atar": 6392, "aders": 6393, "dates": 6394, "\u0120zu": 6395, "\u0120flow": 6396, "Target": 6397, "\u0120involved": 6398, "\u0120io": 6399, "parse": 6400, "$_": 6401, "hest": 6402, ".int": 6403, "-item": 6404, "asy": 6405, "Sp": 6406, "\u0120shift": 6407, "NT": 6408, "\u0120tf": 6409, "_TR": 6410, ".web": 6411, "CS": 6412, "\u0120})": 6413, "\u0120eyes": 6414, "_z": 6415, "');\u010d\u010a": 6416, "iforn": 6417, "\u0120{@": 6418, "\u0120nice": 6419, ".list": 6420, "\u0120\u0120\u0120\u0120\u010d\u010a": 6421, "\u0120floor": 6422, "\u0120redirect": 6423, "\u0120UK": 6424, "(['": 6425, "\u0120wish": 6426, "\u0120capt": 6427, "legal": 6428, "\u0120IO": 6429, "\u0120stage": 6430, ".String": 6431, "\u0120Afr": 6432, "igen": 6433, "\u0120SH": 6434, "Delete": 6435, "ells": 6436, "\u0120solid": 6437, "\u0120meeting": 6438, "\u0120worked": 6439, "\u0120editor": 6440, "iny": 6441, "\u00d0\u00bc": 6442, "_read": 6443, ".Id": 6444, "eff": 6445, "Offset": 6446, "cha": 6447, "USER": 6448, "\u0109\u0109\u0120\u0120\u0120": 6449, "ipped": 6450, "\u0120dict": 6451, "\u0120Run": 6452, ".hpp": 6453, "\u0120ang": 6454, "xml": 6455, "imple": 6456, "\u0120medical": 6457, "_token": 6458, "connect": 6459, "\u0120hour": 6460, "\u0120controller": 6461, "_message": 6462, "UID": 6463, "Gr": 6464, "anded": 6465, "_CH": 6466, "\u0120books": 6467, "\u0120speak": 6468, "aming": 6469, "\u0120mount": 6470, "Record": 6471, "\u0109struct": 6472, ".Web": 6473, "ondon": 6474, "\u0120//\u010a": 6475, "\u0120felt": 6476, ".Auto": 6477, "idge": 6478, "_pos": 6479, "PR": 6480, "\u0120modern": 6481, "Collection": 6482, "_msg": 6483, "CD": 6484, "\u0120Lo": 6485, "\u0120seconds": 6486, "ibly": 6487, ".equals": 6488, "\u0120international": 6489, "#pragma": 6490, "ooth": 6491, "Writer": 6492, "iate": 6493, "\u0120cele": 6494, "\u0120Bit": 6495, "ivo": 6496, "ivery": 6497, "rd": 6498, "HECK": 6499, "\u0120cache": 6500, ".count": 6501, "\u0120roll": 6502, ".Read": 6503, "RED": 6504, "\u0120setup": 6505, "izontal": 6506, "models": 6507, "argv": 6508, "\u0120considered": 6509, "=\"../": 6510, "settings": 6511, "\u0120Rel": 6512, "\u0120growth": 6513, "\u0120mix": 6514, "\u0120Washington": 6515, "\u0120plt": 6516, "\u0120IM": 6517, "\u00e1\u00ba": 6518, "\u0120turned": 6519, "\u0120DateTime": 6520, "\u0120Wed": 6521, "(url": 6522, "\u0120\"-": 6523, "\u0120letter": 6524, "Async": 6525, "\u0120\u0120\u0120\u0120\u0120\u0120\u0120\u0120\u0120\u0120\u0120\u0120\u0120\u0120\u0120\u0120\u0120\u0120\u0120\u0120\u0120\u0120\u0120\u0120\u0120\u0120\u0120\u0120": 6526, "\u0120October": 6527, "_line": 6528, "\u0120attention": 6529, "\u0120collect": 6530, "\u0120Hash": 6531, "\u0120imag": 6532, "Tree": 6533, "\u0120situation": 6534, "ette": 6535, "_no": 6536, "IVE": 6537, "\u0120von": 6538, ".target": 6539, "\u0120knowledge": 6540, "\u0120drive": 6541, ".post": 6542, "\u0120blood": 6543, "\u0120cit": 6544, "primary": 6545, "\u0120configuration": 6546, "tee": 6547, "\u0120photo": 6548, "isode": 6549, "Trace": 6550, "\u0120gave": 6551, "\u0120shot": 6552, "\u0120Air": 6553, "\u0120mother": 6554, "price": 6555, "\u0120morning": 6556, ")){\u010a": 6557, "-x": 6558, "\u0120trade": 6559, "\u0120desc": 6560, "\u0120&&\u010a": 6561, "\u0120parents": 6562, "Api": 6563, "\u00e5\u012a": 6564, "ted": 6565, "wer": 6566, "\u0120\u00e6": 6567, "\u0120sy": 6568, "\u0120Ke": 6569, "Parser": 6570, "\u00e5\u0127": 6571, "ancy": 6572, "\u0120piece": 6573, "ifornia": 6574, "toString": 6575, "ran": 6576, "iding": 6577, "PTION": 6578, "comes": 6579, "/lic": 6580, ".client": 6581, "El": 6582, "Long": 6583, "\u0120professional": 6584, "rupt": 6585, "va": 6586, "\u0120completely": 6587, "\u0120practice": 6588, "\u0120selection": 6589, "Rem": 6590, "ini": 6591, "\u0120cam": 6592, "REE": 6593, "\u0120sites": 6594, "pa": 6595, "ATUS": 6596, "\u00d1\u0123\u00d1\u0124": 6597, "arrant": 6598, "*(": 6599, "_KEY": 6600, "\u0120Button": 6601, "\u0120Friday": 6602, "sequ": 6603, "\u0120reader": 6604, "\u0120messages": 6605, "\u00e8\u00af": 6606, "\u0120buf": 6607, "Ke": 6608, "\u0120nov": 6609, "HP": 6610, "Msg": 6611, "align": 6612, "arily": 6613, "\u0120',": 6614, "_with": 6615, "\u0120das": 6616, "\u0120heard": 6617, "atomic": 6618, "rial": 6619, ")[": 6620, "\u0120dise": 6621, "@end": 6622, "\u0120gold": 6623, "\u0120fair": 6624, "\u0120sales": 6625, ".Button": 6626, "strict": 6627, "save": 6628, "\u0120measure": 6629, "\u0120\"+": 6630, "ecause": 6631, "ViewController": 6632, "\u0120Table": 6633, ".param": 6634, "\u0120decided": 6635, "(((": 6636, "INFO": 6637, "\u0120opportunity": 6638, "Te": 6639, "ICENSE": 6640, "ccording": 6641, "ki": 6642, "\u0120UN": 6643, "\u0120contain": 6644, "\u0120manager": 6645, "\u0120pain": 6646, "\u0120Fire": 6647, "rome": 6648, "\u0120plans": 6649, "Found": 6650, "lay": 6651, "\u0120December": 6652, "\u0120influ": 6653, "\u00c3\u00ba": 6654, "rench": 6655, "\u0120\u0120\u0120\u0120\u0120\u0120\u0120\u0120\u0120\u0120\u0120\u0120\u0120\u0120\u0120\u0120\u0120\u0120\u0120\u0120\u0120\u0120\u0120\u0120\u0120\u0120\u0120\u0120\u0120\u0120\u0120\u0120\u0120": 6656, "azing": 6657, "brief": 6658, "call": 6659, "wood": 6660, "\u0120loaded": 6661, "\u0120grand": 6662, "/f": 6663, "imp": 6664, "_U": 6665, "STR": 6666, "\u00e2\u0122\u00a2": 6667, "\u0120credit": 6668, ".Color": 6669, "orge": 6670, "QUEST": 6671, "\u0120difference": 6672, "\u0120PC": 6673, "wargs": 6674, "\u0120pub": 6675, "unday": 6676, "\u0120fra": 6677, ".max": 6678, "\u0120tried": 6679, "annels": 6680, "send": 6681, "\u0120reports": 6682, "\u0120adult": 6683, "\u00e4\u00ba": 6684, "\u0120consist": 6685, "\u0120Street": 6686, "\u0120Program": 6687, "SQL": 6688, "Matrix": 6689, "ouncil": 6690, "-A": 6691, "\u0109w": 6692, "\u0120whose": 6693, "\u0120relig": 6694, "\u0120Sex": 6695, "\u0120gives": 6696, "none": 6697, ".message": 6698, "(G": 6699, ".awt": 6700, "-right": 6701, "\u0120November": 6702, "ellig": 6703, "utive": 6704, "\u00c4\u0125": 6705, "overn": 6706, "\u0120easily": 6707, "\u0120ideas": 6708, "\u0120\u00d0\u00bd": 6709, "/css": 6710, "lying": 6711, "elle": 6712, "Can": 6713, "_color": 6714, "\u00d0\u00be\u00d0\u00b2": 6715, "\u0120pair": 6716, "ngth": 6717, "\u0120split": 6718, "drop": 6719, "arty": 6720, "ona": 6721, "\u0120capital": 6722, "\u0120hear": 6723, "\u0120exists": 6724, "\u0109log": 6725, "emo": 6726, "Run": 6727, "oi": 6728, "\u0120parser": 6729, "\u0120Method": 6730, "\u0120education": 6731, "[k": 6732, "\u0120library": 6733, ">\";\u010a": 6734, "_UN": 6735, "\u0109std": 6736, "oded": 6737, "\u0120calls": 6738, "here": 6739, "Rel": 6740, "\u0120brand": 6741, "background": 6742, "ga": 6743, "_address": 6744, "_params": 6745, "Category": 6746, "\u0120India": 6747, "_event": 6748, "\u0120ing": 6749, "Render": 6750, ".cl": 6751, "umpy": 6752, "\u0120pet": 6753, "FC": 6754, "\u0120Ant": 6755, "Ext": 6756, "\u0120charge": 6757, "ened": 6758, "grad": 6759, "EO": 6760, "\u0120depend": 6761, "\u0120.\u010a\u010a": 6762, "frame": 6763, "\u0120df": 6764, "\u0120huge": 6765, "\u0120PART": 6766, "eds": 6767, ";;": 6768, "\u0120AM": 6769, "\u0120basic": 6770, "\u0120Let": 6771, "lich": 6772, "\u0120arm": 6773, "\u0120star": 6774, "\u0120federal": 6775, "Work": 6776, "\u0120carry": 6777, "\u0120Israel": 6778, "(obj": 6779, "={{": 6780, "\u0120saved": 6781, "\u0120syn": 6782, "\u0120constant": 6783, "VENT": 6784, "\u0120positive": 6785, "\u0120conduct": 6786, "\u0120skin": 6787, "\u0120earlier": 6788, "\u0120layout": 6789, "\u0120IP": 6790, "OUR": 6791, "\u0120tim": 6792, "stylesheet": 6793, "_cl": 6794, "\u0120Card": 6795, "++){\u010a": 6796, "\u0120temper": 6797, "\u0120David": 6798, "\u0109try": 6799, ".dart": 6800, "\u0120wants": 6801, "\u0120picture": 6802, "\u0120videos": 6803, "\u0120Comm": 6804, "isions": 6805, "_MAX": 6806, "Mapping": 6807, "-content": 6808, "\u0120Ear": 6809, "-de": 6810, "\u0120prem": 6811, "bruary": 6812, "\u0120components": 6813, "\u0120throughout": 6814, "\u0120pull": 6815, "\u0120pages": 6816, "ente": 6817, "respond": 6818, "\u0120gas": 6819, "criptor": 6820, "\u0120edge": 6821, "\u0120bound": 6822, "ACT": 6823, "******": 6824, "\u0120creating": 6825, "\u0120CH": 6826, "\u0120nullptr": 6827, "Br": 6828, "+'": 6829, ".co": 6830, ">::": 6831, "\u0120learning": 6832, ".Length": 6833, "_SH": 6834, "\u0120patients": 6835, "AIN": 6836, "\u0120kids": 6837, "\u0120comfort": 6838, "\u0120shown": 6839, "ugins": 6840, "\u0120Back": 6841, "ella": 6842, "_CL": 6843, "\u0120lat": 6844, "\u0120dispatch": 6845, "\u0120classes": 6846, ".at": 6847, ".begin": 6848, "\u0120successful": 6849, "ban": 6850, "\u0120obtain": 6851, "\u0120Sl": 6852, "\u0120lack": 6853, "iterator": 6854, "Thread": 6855, "(size": 6856, "\u0120none": 6857, ".has": 6858, "_X": 6859, "sort": 6860, "nap": 6861, "pet": 6862, "bin": 6863, "\u0120Canada": 6864, "They": 6865, "\u0120dans": 6866, "\u0120Mat": 6867, "<td": 6868, "\u0120hair": 6869, "\u0120'',\u010a": 6870, "\u0120cu": 6871, "\u0120laws": 6872, "leted": 6873, "ped": 6874, "\u0120pow": 6875, "\u0120knew": 6876, "_COM": 6877, "_,": 6878, "\u0120Mag": 6879, "idents": 6880, "(req": 6881, "\u0120),": 6882, "-center": 6883, "\u0120wide": 6884, "\u0120Author": 6885, "stants": 6886, "\u0120jobs": 6887, "\u0120math": 6888, "etimes": 6889, "Boolean": 6890, "\u0120scope": 6891, "_is": 6892, "\u0120meas": 6893, "\u0120keys": 6894, "elay": 6895, "\u0120exactly": 6896, "'=>'": 6897, "\u0120Paul": 6898, "mas": 6899, "\u0109print": 6900, "(len": 6901, "fd": 6902, "\u0120);": 6903, ".Event": 6904, "qli": 6905, "irit": 6906, "ields": 6907, "oman": 6908, "\u0120Top": 6909, "\u0120vote": 6910, "\u0120mask": 6911, "\u0120theme": 6912, "-\u010a": 6913, "\u0120props": 6914, "\u0120fine": 6915, "\u0120writer": 6916, "_offset": 6917, "car": 6918, "\u0120altern": 6919, "\u0120copyright": 6920, "\u0120destroy": 6921, "pper": 6922, "\u0120generate": 6923, "pped": 6924, "\u00e2\u0122\u013bd": 6925, "\u0120\u0120\u0120\u0120\u0120\u0120\u010a": 6926, "make": 6927, "\u0120Show": 6928, "\u0120browser": 6929, "\u0120favorite": 6930, "\u0120career": 6931, "\u0120happened": 6932, "(char": 6933, "\u0120recommend": 6934, "\u0120liter": 6935, ".filter": 6936, "grade": 6937, "\u0120\u00c2\u00a3": 6938, "Phone": 6939, "oms": 6940, "\u0120named": 6941, "-label": 6942, "ipo": 6943, "\u0120Other": 6944, "\u0120panel": 6945, "\u0120rock": 6946, "Scale": 6947, "\u0109assert": 6948, "\u00d0\u00b4": 6949, "\u0120trust": 6950, "front": 6951, "\u0120demon": 6952, "Ar": 6953, "Net": 6954, "\u0120economic": 6955, "footer": 6956, "\u0120race": 6957, "(node": 6958, "\u0120Option": 6959, "split": 6960, "\u0120physical": 6961, "ifest": 6962, "\u0120removed": 6963, ".http": 6964, ")),\u010a": 6965, "\u0120looked": 6966, "';": 6967, "ding": 6968, "gest": 6969, "aturday": 6970, "/licenses": 6971, "Price": 6972, "\u0120dro": 6973, "\u0120towards": 6974, "\u0120uns": 6975, "\u0120CL": 6976, "\u0109static": 6977, "\u0120rows": 6978, "\u0120define": 6979, ".replace": 6980, "\u0120father": 6981, "\u0120Design": 6982, "assign": 6983, "mut": 6984, "Device": 6985, "Did": 6986, "'))\u010a": 6987, "ometry": 6988, "ayload": 6989, "\u0120histor": 6990, "\u0120Param": 6991, "\u0120Boolean": 6992, "\u0120nature": 6993, "\u0120js": 6994, "\u0120nation": 6995, "ih": 6996, "\u0120discover": 6997, "sem": 6998, "Handle": 6999, "\u0109r": 7000, "\u0120Techn": 7001, "\u0120wall": 7002, "{$": 7003, "@property": 7004, "\u0120\"../": 7005, "\u0120exam": 7006, ".draw": 7007, "opping": 7008, "\u0120nearly": 7009, "\u0120cool": 7010, "\u0120independ": 7011, "RES": 7012, "\u0120handler": 7013, "\u0120Monday": 7014, "\u0120sun": 7015, "Styles": 7016, "ously": 7017, "\u0120\u0109": 7018, "vest": 7019, "Display": 7020, "(y": 7021, "atically": 7022, "\u0120predict": 7023, "ying": 7024, "\u0120sometimes": 7025, "\"]\u010a": 7026, "\u0120drink": 7027, "\u0120bul": 7028, "ifications": 7029, ".insert": 7030, ".reg": 7031, "\u0120tests": 7032, "Alignment": 7033, "\u0120alleg": 7034, "\u0120attribute": 7035, "\u0120Note": 7036, "\u0120myself": 7037, "arts": 7038, "Now": 7039, "\u0120interesting": 7040, "lients": 7041, "\u0120population": 7042, "\u0120California": 7043, "\"I": 7044, "\u00e5\u00b9": 7045, "\u0120greater": 7046, "uesday": 7047, "\u0120thous": 7048, "\u0120costs": 7049, "\u0120launch": 7050, "\\Http": 7051, "ker": 7052, "band": 7053, "\u0120Play": 7054, "\u0120band": 7055, ".shape": 7056, "esome": 7057, "article": 7058, ".rf": 7059, "\u0120wer": 7060, "\u00c3\u00a1s": 7061, "embers": 7062, "usr": 7063, "BA": 7064, "ican": 7065, "ett": 7066, "validate": 7067, "ulti": 7068, "\u0120immediately": 7069, "zer": 7070, "\u0120figure": 7071, "oes": 7072, "eller": 7073, "ircle": 7074, "\u0120Sign": 7075, ".db": 7076, "\u0120rank": 7077, "Bytes": 7078, "\u0120projects": 7079, "_rec": 7080, "ULAR": 7081, "API": 7082, "\u0120Line": 7083, "Port": 7084, "\u0120poll": 7085, "\u0120giving": 7086, "idence": 7087, "--\u010a": 7088, "\u0120plot": 7089, "icial": 7090, "\u0120warrant": 7091, "ITION": 7092, "\u0120Double": 7093, "\u0120billion": 7094, "gorithm": 7095, "\u0120equipment": 7096, "DATE": 7097, "\u0120@\"": 7098, "EE": 7099, "\u0120ple": 7100, "iation": 7101, "\u0120headers": 7102, "\u0120proced": 7103, ".ComponentModel": 7104, "\u0120Obama": 7105, "\u0120pa": 7106, "\u0120Best": 7107, "imately": 7108, ".getString": 7109, ".\\": 7110, "mploy": 7111, "\u0120raw": 7112, "_block": 7113, "undred": 7114, "\"},\u010a": 7115, ".GroupLayout": 7116, "\u0120brought": 7117, "NSString": 7118, "throw": 7119, "created": 7120, ".New": 7121, "_view": 7122, "CP": 7123, "eps": 7124, "Op": 7125, "\u0120gratis": 7126, "\u0120'\"": 7127, "\u0120interview": 7128, "\"\"\"\u010a": 7129, "\u0120partial": 7130, "\u0120aria": 7131, "bing": 7132, "Author": 7133, "Book": 7134, "\u0120Pat": 7135, "uman": 7136, "Users": 7137, "plus": 7138, "\u0120Direct": 7139, "venue": 7140, "alpha": 7141, "UCCESS": 7142, "\u0120Call": 7143, "\u0120);\u010d\u010a": 7144, "imated": 7145, "\u0120remain": 7146, "\u0120anti": 7147, "\u0120London": 7148, "\u0120safety": 7149, "POSE": 7150, "oles": 7151, "controller": 7152, "Byte": 7153, "\u0120Court": 7154, "\u0120Phil": 7155, "\u0120Associ": 7156, "ena": 7157, "\u00e5\u0132": 7158, "_STR": 7159, "coin": 7160, "reshold": 7161, "\u0120batch": 7162, "_Click": 7163, "entication": 7164, ">';\u010a": 7165, "enty": 7166, "\u0120beginning": 7167, "\u0120zero": 7168, "\u0120Convert": 7169, "\u0120terr": 7170, "\u0120paid": 7171, "\u0120increased": 7172, "catch": 7173, "-size": 7174, "activity": 7175, "equals": 7176, "\u0120queue": 7177, "\u0120\"'": 7178, "\u0120International": 7179, "\u0120f\u00c3\u00bcr": 7180, "ursday": 7181, "\u0120scient": 7182, "allow": 7183, "axis": 7184, "\u0120appropri": 7185, "edge": 7186, "\u0120idx": 7187, "Success": 7188, "entifier": 7189, ":\\": 7190, "xis": 7191, "\u0120maximum": 7192, "arks": 7193, "\u0120birth": 7194, "(index": 7195, "\u0120maybe": 7196, ".py": 7197, "files": 7198, "\u0120limited": 7199, "_check": 7200, "look": 7201, "plies": 7202, "\u0120movement": 7203, "'].": 7204, "\u0120broad": 7205, "\u0120BE": 7206, "\u0120UnityEngine": 7207, ".cpp": 7208, "\u0120Every": 7209, "Admin": 7210, "\u0120fans": 7211, "pared": 7212, "\u010a\u0120\u0120\u0120\u0120\u010a": 7213, "\u0120foreign": 7214, "\u0120pan": 7215, "\u0120tour": 7216, "\u0120Order": 7217, "\u0120moving": 7218, "\u0120auf": 7219, "Call": 7220, "cb": 7221, "\u00c5\u0141": 7222, "ventory": 7223, "\u0120Sql": 7224, "\u0120fully": 7225, "ClickListener": 7226, "WORD": 7227, "\u0120announced": 7228, ")\u010d\u010a\u010d\u010a": 7229, "\u0120agreed": 7230, "rie": 7231, "\u0120earn": 7232, "_link": 7233, ".array": 7234, "(text": 7235, "\u0120materials": 7236, ",p": 7237, "ffff": 7238, "vg": 7239, "\u0120\u00c2\u00a9": 7240, "\u0120unless": 7241, "ajax": 7242, "LOG": 7243, "\u0120sexual": 7244, "\u0120\\\"": 7245, "-time": 7246, "\u0120coach": 7247, "\u0120supported": 7248, "\u0120photos": 7249, "iform": 7250, ".Create": 7251, ")]": 7252, "rier": 7253, "\u0120dialog": 7254, "aver": 7255, "ige": 7256, ")+": 7257, "_idx": 7258, ":[": 7259, "_min": 7260, "\u0120Cong": 7261, "\u0120pressure": 7262, "\u0120teams": 7263, "Sign": 7264, "begin": 7265, "rian": 7266, "NESS": 7267, "LS": 7268, "\u0120improve": 7269, "\u0120Sunday": 7270, "\u0120definition": 7271, "iger": 7272, "rollers": 7273, "\u0120thinking": 7274, "Template": 7275, "-F": 7276, "\u0120emerg": 7277, "plates": 7278, "\u0120USA": 7279, ".setState": 7280, "\u0120Also": 7281, "rev": 7282, "\u0120enable": 7283, "\u0120CO": 7284, "PECT": 7285, "\u0120concept": 7286, ")-": 7287, "\u0120\u00e2\u0122\u00a2": 7288, "\u0120sets": 7289, "\u0120meaning": 7290, "emon": 7291, "\u0120Cons": 7292, "cmp": 7293, "eder": 7294, "anned": 7295, "icensed": 7296, "\u0120Super": 7297, "\u0120daily": 7298, "\u0120multi": 7299, "_u": 7300, "\u0120challeng": 7301, "_mode": 7302, "\u0120Promise": 7303, "\u0120strict": 7304, "jo": 7305, "inton": 7306, "(list": 7307, "Only": 7308, ">{": 7309, "\u0120vehicle": 7310, "\u00ed\u0137": 7311, "\u0120Player": 7312, "\u0120Del": 7313, "\u0120pool": 7314, ".url": 7315, "nesday": 7316, "();\u010d\u010a\u010d\u010a": 7317, "\u0120\");\u010a": 7318, "Local": 7319, ".\");\u010a": 7320, "\u0120organization": 7321, "render": 7322, "\u0120Application": 7323, "\u0120summer": 7324, "expected": 7325, "NA": 7326, "\u0120rap": 7327, "_obj": 7328, "\u0120surface": 7329, "\u0120PUR": 7330, "\u0120},\u010a\u010a": 7331, "\u0120variables": 7332, "(message": 7333, "\u0120opin": 7334, ".back": 7335, "\u00d0\u00b0\u00d0\u00bd": 7336, "\u0120workers": 7337, "vm": 7338, "Co": 7339, "ughter": 7340, "\u0120master": 7341, "\u0120\"\",": 7342, "\u0120stories": 7343, ".User": 7344, "\u0120celebr": 7345, "inese": 7346, "BS": 7347, "\u0120Command": 7348, "ashboard": 7349, "\u0120og": 7350, "kg": 7351, ".image": 7352, ".style": 7353, "\u0120steps": 7354, "\u0120Ben": 7355, "(args": 7356, "\u0120Person": 7357, ",y": 7358, "\u0120officials": 7359, "|\u010a": 7360, "\u0120skills": 7361, "vc": 7362, "\u0120builder": 7363, "\u0120gar": 7364, "Account": 7365, "\u0120Auth": 7366, "\u00e7\u0136": 7367, "'])\u010a": 7368, "\u0120AT": 7369, "nn": 7370, ".Int": 7371, "SSERT": 7372, "\u0120effective": 7373, "LETE": 7374, "\u0120tools": 7375, "ARD": 7376, "\u0120digital": 7377, "Double": 7378, "\u0120Find": 7379, "RC": 7380, "\u0120inline": 7381, "/r": 7382, "ARAM": 7383, "ASK": 7384, "\u0120intent": 7385, "aight": 7386, "_addr": 7387, "\u0120requests": 7388, ".first": 7389, "\u0120debug": 7390, "\u0120spent": 7391, "()));\u010a": 7392, "\u00c5\u013d": 7393, "\u0120princip": 7394, "Logger": 7395, "cludes": 7396, ".use": 7397, "\u0120surv": 7398, "media": 7399, "\u0120February": 7400, "\u0120Mac": 7401, "\u0120missing": 7402, "\u0120wife": 7403, "\u0120talking": 7404, "\u0120Make": 7405, "\u0120cart": 7406, "\u0120located": 7407, "Enc": 7408, "-a": 7409, "chron": 7410, "\u0120cards": 7411, "\u0120guy": 7412, "\u0120pers": 7413, "\u0120Yes": 7414, "atever": 7415, "\u0120Ang": 7416, "olar": 7417, "\u0120Even": 7418, "\u0120accur": 7419, "\u0120Power": 7420, "\u0120Gold": 7421, "clear": 7422, "Process": 7423, "\u0120records": 7424, "\u0120killed": 7425, ".clear": 7426, "\u0120WARRANTIES": 7427, "\u0120purpose": 7428, "panel": 7429, "JECT": 7430, "\u00c3\u0143a": 7431, "\u0120exerc": 7432, "WS": 7433, "/L": 7434, ".exports": 7435, "\u0120___": 7436, "\u0120sin": 7437, "Servlet": 7438, "\u0120d\u00c3\u00a9": 7439, ".delete": 7440, "roke": 7441, "Sl": 7442, "ugh": 7443, "ears": 7444, "\u0120pointer": 7445, "\u0120hop": 7446, "allery": 7447, "\u0120obs": 7448, "covery": 7449, "\u0109char": 7450, "\u0109\u0109\u0109\u0109\u0109\u0109\u0109\u0109\u0109\u0109": 7451, "\u0109def": 7452, "ocity": 7453, "itchen": 7454, "ulations": 7455, "\u0120FIT": 7456, "\u0120).": 7457, "straints": 7458, "vention": 7459, "\u0120requires": 7460, "\u0120Oper": 7461, "ME": 7462, "OUNT": 7463, "allet": 7464, "\u0120norm": 7465, "IRE": 7466, "exas": 7467, "\u0120programs": 7468, "\u0120weak": 7469, "'.$": 7470, "uing": 7471, "\u0109\u0120\u0120\u0120\u0120\u0120\u0120\u0120": 7472, "\u0120mil": 7473, "\u0120firm": 7474, "initely": 7475, "_VALUE": 7476, "apse": 7477, "atisf": 7478, "\u0120demand": 7479, "_mod": 7480, "\u0120described": 7481, "\u0120places": 7482, "VID": 7483, "\u0120alone": 7484, "\u0120export": 7485, "\u0120vec": 7486, "\u0120Max": 7487, "\u0120activities": 7488, "ictures": 7489, "gener": 7490, "\u0120ma": 7491, "\u0124\u00ac": 7492, "\u0120expression": 7493, "Callback": 7494, "_content": 7495, "\u0120Most": 7496, "\u0120testing": 7497, "EC": 7498, "CHANT": 7499, "\u0120adjust": 7500, ".Threading": 7501, "(ctx": 7502, "\u0120agree": 7503, "ighest": 7504, "\u0120ui": 7505, "\u0120Law": 7506, ".Y": 7507, "><?": 7508, "\u0120pod": 7509, "-lg": 7510, "\u00e2\u0122\u013f\u010a\u010a": 7511, "\u0120describe": 7512, "\u0120European": 7513, "-sh": 7514, "\u0120PURPOSE": 7515, "ORY": 7516, "\u0120convers": 7517, "\u0120Illuminate": 7518, "\u0120Av": 7519, "(ch": 7520, "?\"": 7521, "chen": 7522, "ima": 7523, "Document": 7524, "\u0120operations": 7525, "win": 7526, "\u0109function": 7527, ".Image": 7528, "\u0120scen": 7529, "/h": 7530, "\u0120SC": 7531, "\u0120explo": 7532, ":%": 7533, "/**\u010d\u010a": 7534, "NAME": 7535, "\u00e6\u012a": 7536, "(var": 7537, "\u0120director": 7538, "ONG": 7539, "\u0120yield": 7540, "\u0120feet": 7541, "\u0120Search": 7542, "\u0120Il": 7543, "\u0120restaur": 7544, "duc": 7545, "\u0120integer": 7546, "\u0120'';\u010a": 7547, "\u0120highly": 7548, "checked": 7549, "\u0120PARTIC": 7550, "ERCHANT": 7551, "\u00ef\u00bc\u012b": 7552, "\u0120optim": 7553, "Queue": 7554, "\u0120LI": 7555, "itation": 7556, "\u0120transport": 7557, "ission": 7558, "fill": 7559, "usion": 7560, "\u0120\u0120\u0120\u0120\u0120\u0120\u0120\u0120\u0120\u0120\u0120\u0120\u0120\u0120\u0120\u0120\u0120\u0120\u0120\u0120\u0120\u0120\u0120\u0120\u0120\u0120\u0120\u0120\u0120\u0120": 7561, "\u0109bool": 7562, "-th": 7563, "upt": 7564, "\u0120essential": 7565, "anted": 7566, "\u0120benefits": 7567, "\u0109S": 7568, "';\u010d\u010a": 7569, "iki": 7570, "\u0120girls": 7571, "iced": 7572, "buffer": 7573, "]+": 7574, "\u0120socket": 7575, "\u0120prices": 7576, "\u0120Fre": 7577, "\u0120sat": 7578, "\u0120wood": 7579, "MenuItem": 7580, "ARG": 7581, "\u0120Admin": 7582, "OWN": 7583, "dk": 7584, "\u0120reset": 7585, "\u0120forms": 7586, "\u0120\u00d0\u00b8": 7587, "\u00e6\u0138": 7588, "\u0120Tuesday": 7589, "\u0120Initialized": 7590, "_train": 7591, "orary": 7592, "ategor": 7593, "\u0120dt": 7594, "Total": 7595, "construct": 7596, "ilies": 7597, "\u0120guys": 7598, "\u00d0\u00b5\u00d1\u0122": 7599, "\u0120instruction": 7600, "yled": 7601, "\u0120internet": 7602, "etadata": 7603, "ady": 7604, "faces": 7605, "jection": 7606, "\u0120Jack": 7607, "\u0120rect": 7608, "[-": 7609, "\u0120Leg": 7610, "\u0120devices": 7611, "OC": 7612, "\u0120*\u010d\u010a": 7613, "oration": 7614, "ertain": 7615, "\u0120guard": 7616, "ostream": 7617, "\u0120enum": 7618, ".layout": 7619, "\u0120\";\u010a": 7620, "voke": 7621, "\u0120Ok": 7622, "Home": 7623, "(tr": 7624, "ETH": 7625, "\u0120delay": 7626, "\u0120purchase": 7627, "dc": 7628, "\u0120aren": 7629, "_once": 7630, "\u0109\u0109\u0109\u0109\u010a": 7631, "ror": 7632, "draw": 7633, ".run": 7634, "(model": 7635, "Timeout": 7636, "lik": 7637, "\u0120Arg": 7638, ".en": 7639, "\u0120fish": 7640, "cpy": 7641, "_fe": 7642, "ERCHANTABILITY": 7643, "(X": 7644, "_output": 7645, "??": 7646, "\u0120jo": 7647, "andard": 7648, "\u0120doll": 7649, "errors": 7650, "_base": 7651, "\u0120PARTICULAR": 7652, "\u0120leader": 7653, "\u0120compar": 7654, "\u0120doub": 7655, "\u0120Vis": 7656, "StackTrace": 7657, "-C": 7658, "\u0120Stud": 7659, "stitute": 7660, "More": 7661, "\u0120Description": 7662, "WARE": 7663, "ads": 7664, "\u0120\u00d0\u00ba": 7665, "bind": 7666, "=self": 7667, "employ": 7668, "[n": 7669, ".all": 7670, "-B": 7671, "&&": 7672, "alm": 7673, "\u0120culture": 7674, "house": 7675, "\u0120suffer": 7676, "\u0120'%": 7677, "\u0120straight": 7678, "\u0120Star": 7679, "udo": 7680, "\u0120ded": 7681, "\u0120COM": 7682, "\u0120confirm": 7683, "\u0120Good": 7684, ".sc": 7685, "________________": 7686, "DR": 7687, "Configuration": 7688, "DateTime": 7689, "\u0120advert": 7690, "\u0120couldn": 7691, "async": 7692, "stack": 7693, "')\u010d\u010a": 7694, "Kit": 7695, "\u0120hous": 7696, "\u0120mechan": 7697, "rate": 7698, "\u0120audio": 7699, "\u0109cout": 7700, "cores": 7701, "\u0120spot": 7702, "\u0120increasing": 7703, "\u0120##": 7704, ")))": 7705, "points": 7706, "\u0120compared": 7707, "lig": 7708, "\u0120behavior": 7709, "\u0120BY": 7710, "\u0120Att": 7711, "craft": 7712, "headers": 7713, "ete": 7714, "endregion": 7715, "\u0120detail": 7716, "ULE": 7717, "\u0120Common": 7718, "\u0109protected": 7719, "ston": 7720, "\u0120FITNESS": 7721, "\u0120fresh": 7722, "\">\u010a\u010a": 7723, ".example": 7724, "berg": 7725, "\u0120moved": 7726, "\u0109e": 7727, "\u0120Saturday": 7728, "\u0120payload": 7729, "\u00c4\u0129": 7730, "):\u010a\u010a": 7731, "\u0120bey": 7732, "urer": 7733, "<script": 7734, "\u0120symbol": 7735, "\u0120assum": 7736, "\u0120pul": 7737, "Effect": 7738, "\u0120hundred": 7739, "Tool": 7740, "aked": 7741, "connection": 7742, "\u0120voice": 7743, "\u0120pd": 7744, "\u0120transaction": 7745, "\u0120links": 7746, "Err": 7747, "\u0120Indian": 7748, "TC": 7749, "atalog": 7750, "ni": 7751, "sign": 7752, "<<\"": 7753, "ji": 7754, "ya": 7755, "\u0120demonstr": 7756, "ulated": 7757, ".St": 7758, "\u0120instit": 7759, "\u0120boost": 7760, "\u0120cells": 7761, "olic": 7762, ".Pro": 7763, ":</": 7764, "EventListener": 7765, "ifying": 7766, "\u0120Di": 7767, "orrow": 7768, ".execute": 7769, "\u0120college": 7770, "Your": 7771, "\u0120largest": 7772, ".dis": 7773, "\u0120qui": 7774, "\u0120individuals": 7775, "_buffer": 7776, "\u0120ng": 7777, "SA": 7778, "\u0120Control": 7779, "\u0120sing": 7780, "\u0120suit": 7781, "\u0120\u0120\u0120\u0120\u0109": 7782, "SG": 7783, "\u0120jump": 7784, "\u0120smart": 7785, "oma": 7786, "\u0120Exp": 7787, "\u0120'-": 7788, "\u0120assist": 7789, "\u0120successfully": 7790, "sys": 7791, "\u0120Cre": 7792, "_ref": 7793, "\u0120Thursday": 7794, "\u0120bur": 7795, "\u0120\u00d0\u00b4": 7796, "\u0120beyond": 7797, "\u0120nodes": 7798, "Details": 7799, "inct": 7800, "\u0120James": 7801, "\u0120affect": 7802, "exception": 7803, "\u0120typeof": 7804, "(\u010d\u010a": 7805, "-se": 7806, "\u0120fetch": 7807, "`,": 7808, "\u0120crusher": 7809, "}.": 7810, "\u0120BO": 7811, "Show": 7812, "\u0120rates": 7813, "\u0120bon": 7814, "-icon": 7815, "\u0120Media": 7816, "RESS": 7817, "\u0120Valid": 7818, "\u00d0\u00be\u00d0\u00bb": 7819, "\u0120fuck": 7820, "acks": 7821, "\u0120studies": 7822, "Me": 7823, "\u0120owners": 7824, "}else": 7825, "\u0120growing": 7826, "Variable": 7827, "\u0120Bel": 7828, ".random": 7829, "vement": 7830, "onym": 7831, "(F": 7832, "\u0120FALSE": 7833, "\u0120torch": 7834, "(row": 7835, "igo": 7836, "structure": 7837, "\u0120certainly": 7838, "Dep": 7839, "\u0120Green": 7840, "question": 7841, "\u0120adding": 7842, "\u0120Develop": 7843, "_def": 7844, "\u0120mach": 7845, "=%": 7846, "\u0109\u0109\u0120": 7847, "conds": 7848, "Project": 7849, "\u0120reject": 7850, "\u0120\u00ce": 7851, "\u0120poor": 7852, "\u0120aware": 7853, "\u0120Build": 7854, "\u0120British": 7855, "\u0120NE": 7856, "\u0120numer": 7857, "rees": 7858, "claim": 7859, "\u0120mock": 7860, "\u0120om": 7861, "\u0120scre": 7862, "OLD": 7863, ".pl": 7864, "eler": 7865, "\u0120correspond": 7866, "_HE": 7867, "\u0120binary": 7868, "_order": 7869, "\u0120SQL": 7870, "\u0120advant": 7871, "\u0120prev": 7872, ".[": 7873, ".assertEqual": 7874, "plier": 7875, "arp": 7876, "\u0120closed": 7877, "\u0120encour": 7878, "\u0120QString": 7879, "aud": 7880, "\u0120developed": 7881, "\u0120permission": 7882, ".debug": 7883, "operator": 7884, "\u0120'\u010a": 7885, "\u0120sym": 7886, "atively": 7887, "\u00c3\u00a9e": 7888, "-color": 7889, "\u0120GET": 7890, "ky": 7891, "\u0120although": 7892, "_request": 7893, "_element": 7894, "................": 7895, "_DATA": 7896, "\u0120amazing": 7897, "\u0120sb": 7898, "\u0120Default": 7899, "Events": 7900, "\u0120failure": 7901, "acle": 7902, "Properties": 7903, "\u0120dream": 7904, "\u0120distr": 7905, "\u0120au": 7906, "\u0120generated": 7907, "\u00e6\u0137": 7908, "\u0120Team": 7909, "USE": 7910, "\u0120income": 7911, "\u0120eye": 7912, "_not": 7913, "\"],": 7914, "_form": 7915, "Support": 7916, "orders": 7917, ".Print": 7918, "ville": 7919, "\u0120Wednesday": 7920, "olver": 7921, "\u0120oppos": 7922, "isation": 7923, "ola": 7924, "Close": 7925, "<p": 7926, "_width": 7927, "Invalid": 7928, "xb": 7929, "\u0120strugg": 7930, "_action": 7931, "\u0120txt": 7932, "\u0120Path": 7933, "alar": 7934, "\u0120MERCHANTABILITY": 7935, "service": 7936, "\u0120Michael": 7937, "ableView": 7938, "Debug": 7939, "okes": 7940, "She": 7941, "\u0120guess": 7942, "\u0120Java": 7943, "_PATH": 7944, "\u0120particularly": 7945, "\u0120II": 7946, "\u0120domain": 7947, "\u00e5\u00b9\u00b4": 7948, "\u0120reduce": 7949, "-left": 7950, "real": 7951, "\u0120appears": 7952, "\u0120como": 7953, "\u0120Unit": 7954, "\u0120Govern": 7955, "ali": 7956, "allel": 7957, "\u0120Jew": 7958, "_I": 7959, "\u0120cos": 7960, ".color": 7961, "\u0120Global": 7962, "\u0120tele": 7963, "ben": 7964, "_trans": 7965, "\u0120reasons": 7966, "\u0120emb": 7967, "ensity": 7968, "lines": 7969, "omin": 7970, "Screen": 7971, "\u00d0\u00b0\u00d1\u0124": 7972, "pects": 7973, "clip": 7974, "foo": 7975, "rent": 7976, "\u0120af": 7977, "\u0120danger": 7978, "iling": 7979, "Names": 7980, "Our": 7981, "\u0120distribution": 7982, "While": 7983, "SL": 7984, "Write": 7985, "\u0120goto": 7986, "\u0120colors": 7987, "\u0120powerful": 7988, "kin": 7989, "\u0120depth": 7990, "ercial": 7991, "\u0120Congress": 7992, "\u0120Market": 7993, "Db": 7994, "under": 7995, "\u0120Last": 7996, "\u00c3\u0141": 7997, "greg": 7998, "\u0120posts": 7999, "_URL": 8000, "otos": 8001, "Don": 8002, "\u0120micro": 8003, "\u0120arrest": 8004, "\u00d0\u00bf": 8005, "\u0120(@": 8006, "\u0120Hot": 8007, "\u0120Index": 8008, ";&": 8009, "#!": 8010, "\u0120Nor": 8011, "\u0120Cap": 8012, "-(": 8013, "\u0120interested": 8014, "pear": 8015, "\u0120rent": 8016, "\u0120album": 8017, "olicy": 8018, ".lang": 8019, ".trans": 8020, ".format": 8021, "\u0120{\u010d\u010a\u010d\u010a": 8022, "phere": 8023, "\u0120axis": 8024, "\u0120Business": 8025, "ersistence": 8026, "urr": 8027, "\u0120minimum": 8028, "endor": 8029, "\u0120SD": 8030, "\u0120Internet": 8031, "\u00e5\u00a4": 8032, "Exp": 8033, "iverse": 8034, "MM": 8035, "\u0120obvious": 8036, "\u0120basis": 8037, "\u0120science": 8038, "\u0120budget": 8039, "izations": 8040, "PA": 8041, "\u0120flags": 8042, "pret": 8043, "LOCK": 8044, "\u0120variety": 8045, "\u0120truth": 8046, "dt": 8047, "\u0120gone": 8048, "\u0120battle": 8049, "<std": 8050, "\u0120Sil": 8051, "rf": 8052, "uda": 8053, "\u0120erot": 8054, "\u0120Cam": 8055, "\u0120station": 8056, "\u0120'</": 8057, "cheme": 8058, "\u0120Sun": 8059, "\u0120finished": 8060, "\u0120shop": 8061, "\u0120Kore": 8062, "\u0120eight": 8063, "_REG": 8064, "ND": 8065, ">,": 8066, "\"><?": 8067, "(num": 8068, "\u0109inline": 8069, "Transaction": 8070, ".On": 8071, "\u0120mail": 8072, "rey": 8073, "results": 8074, "\u0120nav": 8075, "IMIT": 8076, "_ids": 8077, "Make": 8078, "\u00e5\u012c": 8079, "Modal": 8080, "\u0120LOG": 8081, "\u0120Sur": 8082, "\u0120instanceof": 8083, "\u0120overall": 8084, "\u0120Information": 8085, "\u0120construction": 8086, "_FILE": 8087, "but": 8088, "\u0120medic": 8089, "\u0120duration": 8090, "itness": 8091, "agent": 8092, "AV": 8093, "\u0120seven": 8094, "olf": 8095, "\u0120}}\u010a": 8096, "\"],\u010a": 8097, "\u0120calling": 8098, "\u0120ans": 8099, "throws": 8100, "orizontal": 8101, "\u0120useState": 8102, ".fl": 8103, "\u0120Status": 8104, "\u0120Online": 8105, "RR": 8106, "\u0120Rich": 8107, "\u0120Hill": 8108, "\u0120brain": 8109, "\u0120followed": 8110, "emic": 8111, "\u0120slight": 8112, "\u0120insurance": 8113, ".Array": 8114, "\u0120abstract": 8115, "\u0120Sum": 8116, "redirect": 8117, "owner": 8118, "(msg": 8119, "\u0120Clinton": 8120, "Non": 8121, "\u0109ex": 8122, "\u0120volume": 8123, "\u0120EventArgs": 8124, "-L": 8125, "\u0120Dim": 8126, "\u0120Mart": 8127, "\u0120cursor": 8128, "\u0120implementation": 8129, "urred": 8130, "\u0120larger": 8131, ");\u010a\u010a\u010a": 8132, "'+": 8133, ".transform": 8134, "\u0120upload": 8135, "\u0120\u0120\u0120\u0120\u0120\u0120\u0120\u0120\u0120\u0120\u0120\u0120\u0120\u0120\u0120\u0120\u0120\u0120\u0120\u0120\u0120\u0120\u0120\u0120\u0120\u0120\u0120\u0120\u0120\u0120\u0120\u0120\u0120\u0120\u0120\u0120\u0120\u0120\u0120\u0120\u0120\u0120\u0120\u0120\u0120\u0120\u0120\u0120\u0120\u0120\u0120\u0120\u0120\u0120\u0120": 8136, "Draw": 8137, "nel": 8138, "\u0109float": 8139, "qrt": 8140, "\u0120Network": 8141, "\u0120tit": 8142, "Axis": 8143, ".android": 8144, "\u0120completed": 8145, "\u0120mur": 8146, "\u0120columns": 8147, "xc": 8148, "\u0120supply": 8149, "iminal": 8150, "\u0120spr": 8151, "================================================================": 8152, "\u0120units": 8153, "(u": 8154, "mi": 8155, "replace": 8156, "[key": 8157, "\u00e0\u00b9": 8158, "antic": 8159, "\u0120payment": 8160, ",B": 8161, "\u0120Apple": 8162, "gin": 8163, "Required": 8164, "#+": 8165, "lands": 8166, "\u0120squ": 8167, "\u0120factor": 8168, "dec": 8169, "\u0120strength": 8170, "\u0120boy": 8171, "\u0120balance": 8172, "\u0120sources": 8173, "screen": 8174, "-top": 8175, "\u0120Amazon": 8176, "\u0120hidden": 8177, "\u00d0\u00b5\u00d1\u0124": 8178, "_client": 8179, "\u0120eat": 8180, ".display": 8181, "\u0120\u00c2\u00bb": 8182, "\u0120trigger": 8183, "anager": 8184, "\u0120tro": 8185, "\u0120claims": 8186, "ford": 8187, "\u0120Company": 8188, "\u0120gift": 8189, ",:": 8190, "_app": 8191, "handle": 8192, "\u0120produce": 8193, "/lib": 8194, "\u0120-*": 8195, "\u0109set": 8196, "'];": 8197, "arc": 8198, "ander": 8199, "\u0120Engine": 8200, "\u0120attributes": 8201, "task": 8202, "<=": 8203, "(N": 8204, "\u0120warm": 8205, "which": 8206, "\u0120Fore": 8207, "agnost": 8208, "mys": 8209, "\u0120tal": 8210, "\u0120Sal": 8211, "gi": 8212, "\u0120Print": 8213, "\u0120TRUE": 8214, "\u0120\u00d0\u00be": 8215, ".UI": 8216, "\u0120flash": 8217, "roperty": 8218, ".location": 8219, "\u0120Mill": 8220, "bi": 8221, "contr": 8222, ".request": 8223, "\u0120Sam": 8224, "\u0120negative": 8225, "kit": 8226, "\u0120sett": 8227, ".printStackTrace": 8228, "abe": 8229, "\u0109i": 8230, "\u0120burn": 8231, "\u0120society": 8232, "Cache": 8233, "\u0120Security": 8234, ".models": 8235, "\u0120WARRANTY": 8236, "_up": 8237, "ceive": 8238, "\u0120clients": 8239, ".Tr": 8240, "\u0120providing": 8241, "\u0120rout": 8242, "material": 8243, "\u0120||\u010a": 8244, "\u0120Ser": 8245, "\u0120Office": 8246, "FTWARE": 8247, "\u0120'$": 8248, "\u0120foc": 8249, "\u0120excell": 8250, "\u0120cat": 8251, "normal": 8252, "\u0120determine": 8253, "\u0109uint": 8254, "Pane": 8255, "\u0120employees": 8256, "\u0120Texas": 8257, "\u0120traff": 8258, "\u0120Report": 8259, "anta": 8260, "\u0120Box": 8261, "\u0120django": 8262, "\u0120partner": 8263, "EB": 8264, "LINE": 8265, "\u0120feeling": 8266, "\u0120civil": 8267, "(float": 8268, "Sql": 8269, "\u0120wouldn": 8270, ".init": 8271, ".left": 8272, "-v": 8273, "_level": 8274, "'}": 8275, "AF": 8276, "\u0120loading": 8277, "\u0120Only": 8278, "\u0120cookies": 8279, "\u0120Gl": 8280, "CO": 8281, "\u0120strategy": 8282, "('./": 8283, "\u0120ship": 8284, "poses": 8285, "\u0120signal": 8286, "\u0120alpha": 8287, ".pop": 8288, "Radius": 8289, "\u0120replace": 8290, "_DIR": 8291, "counter": 8292, "bservable": 8293, "ela": 8294, "Weight": 8295, "hash": 8296, "bose": 8297, "fx": 8298, "\u0120Email": 8299, "\u0120refer": 8300, "localhost": 8301, "_RO": 8302, "iques": 8303, "Step": 8304, "\u0120ahead": 8305, "(View": 8306, "\u0120Services": 8307, "\u0120Json": 8308, "essor": 8309, "\u0120pun": 8310, "\u0120appropriate": 8311, "akers": 8312, "osen": 8313, "posing": 8314, "\u0120agent": 8315, "fc": 8316, "\u0120transfer": 8317, "\u0120invalid": 8318, "\u0120Research": 8319, "Vertex": 8320, "\u0120gay": 8321, "\u0120journal": 8322, "[x": 8323, "\u0120\"\",\u010a": 8324, "\u0120Well": 8325, ".Tasks": 8326, "Spec": 8327, "\u0120ol": 8328, "\u0120spend": 8329, "\u0120Australia": 8330, "Match": 8331, ".junit": 8332, "\u0120\u0120\u0120\u0120\u0120\u0120\u0120\u0120\u0120\u0120\u0120\u0120\u0120\u0120\u0120\u0120\u0120\u0120\u0120\u0120\u0120\u0120\u0120\u0120\u0120\u0120\u0120\u0120\u0120\u0120\u0120\u0120\u0120\u0120\u0120\u0120\u0120": 8333, "\u0120MAX": 8334, "izable": 8335, "clusive": 8336, "_valid": 8337, "\u0120quarter": 8338, "yan": 8339, "\u0120Edit": 8340, "arden": 8341, "=new": 8342, "\u0120frag": 8343, "Bit": 8344, "zi": 8345, "aine": 8346, "udd": 8347, ".Object": 8348, "debug": 8349, "\u0120cash": 8350, "_IM": 8351, "\u0120een": 8352, "\u0120commercial": 8353, "\u0120Video": 8354, "loader": 8355, "\u0120fixed": 8356, "\u0120applications": 8357, "\u0120_,": 8358, "\u0120Russia": 8359, "itect": 8360, "_(": 8361, "\u0120Block": 8362, "\u0120san": 8363, "\u0120Tom": 8364, "\u0120perhaps": 8365, "\u0120sig": 8366, "levant": 8367, "\u0120corpor": 8368, "ataset": 8369, "ronic": 8370, "xe": 8371, "\u0120eth": 8372, "Some": 8373, "pop": 8374, "_OK": 8375, "\u0120tend": 8376, ".Res": 8377, "_and": 8378, "\u0120reviews": 8379, "\u0120wild": 8380, "\u0120degree": 8381, ".O": 8382, ".objects": 8383, "_args": 8384, "nil": 8385, "\u0120disabled": 8386, "Parent": 8387, "\u0120notes": 8388, "\u0120\"\"\u010a": 8389, "(state": 8390, "istrict": 8391, "\u0120logging": 8392, ".IO": 8393, "\u0120Mal": 8394, "DM": 8395, "\u0120xml": 8396, "\u0120Robert": 8397, "elen": 8398, "layout": 8399, "fol": 8400, "']))": 8401, ",b": 8402, "\u0120Jer": 8403, "filename": 8404, "\u0120fan": 8405, "\u0120Custom": 8406, "=\"\"": 8407, "\u0120Die": 8408, "Bundle": 8409, ".utils": 8410, "\u0120trip": 8411, "MB": 8412, "\u0120soft": 8413, "_MODE": 8414, "\u0120applicable": 8415, "\u0120upper": 8416, "ERVER": 8417, "_al": 8418, "_LOG": 8419, "Here": 8420, "wp": 8421, "\u0120Server": 8422, "\u0120Client": 8423, "\u0120chem": 8424, "Scroll": 8425, "\u0120highest": 8426, "\u0120Select": 8427, "\u0120\"@": 8428, "\u0120Why": 8429, "Sec": 8430, "heel": 8431, "Operation": 8432, "\u0120connected": 8433, "irmed": 8434, "\u0120citiz": 8435, "\u0120Che": 8436, "\u0120forces": 8437, "\u0120www": 8438, "Root": 8439, "ANCE": 8440, "Many": 8441, "icip": 8442, "rgan": 8443, "\u0120Tor": 8444, "\u0120Press": 8445, "\u0120Mor": 8446, "-line": 8447, "uled": 8448, ">\\": 8449, "\u0120thus": 8450, "\u0120Register": 8451, "hol": 8452, "\u0120Chinese": 8453, "\u0120posted": 8454, "\u0120magn": 8455, "abilities": 8456, "\u0120disease": 8457, "\u0120remains": 8458, "\u0120Prof": 8459, "-form": 8460, "\u0120cin": 8461, "organ": 8462, "icate": 8463, "\u0120stress": 8464, "]*": 8465, "\u0120----------------------------------------------------------------": 8466, "_context": 8467, "orry": 8468, "\u0120died": 8469, "mat": 8470, "\u0120starts": 8471, ".Message": 8472, "\u0120runs": 8473, "\u0120guide": 8474, "\u0120warranty": 8475, "entials": 8476, "dict": 8477, "\u0120Size": 8478, "uler": 8479, "\u0120responsible": 8480, "_SET": 8481, "\u0120containing": 8482, "\u0120Price": 8483, "||": 8484, "FS": 8485, "\u0120emp": 8486, "_button": 8487, "(uint": 8488, "\u0120suff": 8489, "pth": 8490, "\u0120definitely": 8491, "pute": 8492, "\u0120marketing": 8493, "\u0120WH": 8494, "\u0120Sie": 8495, "+=": 8496, "OLOR": 8497, "\u0120consult": 8498, "\u0120signed": 8499, "\u0120sequence": 8500, "lee": 8501, "\u0120requirements": 8502, "hy": 8503, "Express": 8504, "MT": 8505, "sey": 8506, "\u0120ult": 8507, "\u00e5\u00ae": 8508, "elligence": 8509, "\u0120analy": 8510, "\u0120dress": 8511, "engine": 8512, "\u0120Great": 8513, "\u0120Android": 8514, "\u0120Alex": 8515, "mode": 8516, "Dictionary": 8517, ".Date": 8518, "\u00e4\u00bd": 8519, "VICE": 8520, "\u0120families": 8521, "\u0120Russian": 8522, "\u0120Times": 8523, ".call": 8524, "$(": 8525, "Profile": 8526, "\u0120folder": 8527, "ches": 8528, "\u0120legis": 8529, "_row": 8530, "unes": 8531, "\u00d9\u0126": 8532, "\u0120}).": 8533, "Assert": 8534, "agen": 8535, "\u0120Hand": 8536, "Iter": 8537, "\u0120biggest": 8538, "oreach": 8539, "\u0120polic": 8540, "\u0120permissions": 8541, "\u0120showed": 8542, "\u0120Element": 8543, "\u0120topic": 8544, "\u00e2\u0122\u0136\u00e2\u0122\u0136": 8545, "road": 8546, "\u0120Bank": 8547, "record": 8548, "\u0120partners": 8549, "\u0120Ref": 8550, "essions": 8551, "\u0120assess": 8552, "UST": 8553, "\u0120Party": 8554, "produ": 8555, "LC": 8556, "\u0120ul": 8557, ".form": 8558, "hide": 8559, "copy": 8560, "UTF": 8561, "\u0120SOFTWARE": 8562, "\u010d\u010a\u010d\u010a\u010d\u010a": 8563, "\u0120Lin": 8564, "una": 8565, "ugar": 8566, "\u0120administration": 8567, "\u0120opening": 8568, "\u0120scan": 8569, "\u0120continued": 8570, "component": 8571, ".sp": 8572, "\u0120happens": 8573, "ummy": 8574, "\u0120PR": 8575, ".File": 8576, "\u0120Download": 8577, "Loading": 8578, "di": 8579, "\u0120waiting": 8580, "_ADD": 8581, "Tab": 8582, ".querySelector": 8583, "\u0120economy": 8584, "\u0120French": 8585, "txt": 8586, "\u0120fant": 8587, "_;\u010a": 8588, "Holder": 8589, "SH": 8590, "\u0120numpy": 8591, "\u0120street": 8592, "\u0120male": 8593, "\\Model": 8594, "anging": 8595, "\u0120Bill": 8596, "\u0120previously": 8597, "BI": 8598, "\u0120Secret": 8599, "\u0120mist": 8600, "\u0120Field": 8601, "ups": 8602, "\u0120Process": 8603, "\u0120kept": 8604, "\u0120OT": 8605, "\u0120traditional": 8606, ".i": 8607, "amin": 8608, "\u0120helps": 8609, "Any": 8610, "origin": 8611, "ilters": 8612, "ju": 8613, "desc": 8614, "\u0120Account": 8615, "\u0120)\u010d\u010a": 8616, "ktop": 8617, "olly": 8618, "\u0120fs": 8619, "\u0120\u00ea": 8620, "\u0120ut": 8621, "\u0120central": 8622, "(test": 8623, ".An": 8624, "\u0120satisf": 8625, "GR": 8626, "\u0120Full": 8627, "\u0120heat": 8628, "iber": 8629, "\u0120onto": 8630, "mos": 8631, "Schema": 8632, "\u0120factory": 8633, "\".$": 8634, "aws": 8635, "Statement": 8636, "(target": 8637, "\u0109new": 8638, ".be": 8639, "\u0120guest": 8640, "\u0120mal": 8641, "ARY": 8642, "\u0120reached": 8643, "\u0120mouse": 8644, "\u0120challenge": 8645, "\u0109double": 8646, "\u0120Tem": 8647, "\u0120terror": 8648, "\u0120extract": 8649, "_TO": 8650, "\u0120separate": 8651, "\u0120mir": 8652, "help": 8653, "\u0120capacity": 8654, "\u0120Property": 8655, "kan": 8656, "_create": 8657, "\u0120Light": 8658, ".parent": 8659, "\u0120understanding": 8660, "\u0120easier": 8661, "\u0120|=": 8662, "\u0120enh": 8663, "\u0120fat": 8664, "\u0120protest": 8665, "amm": 8666, "_AT": 8667, "-of": 8668, "ils": 8669, "\u0120Oh": 8670, "\u0120psych": 8671, "\u0120$.": 8672, "inds": 8673, "\u0120relative": 8674, "shop": 8675, "short": 8676, "\u0120Sand": 8677, "uestion": 8678, "\u0120fear": 8679, "/\u010a\u010a": 8680, ".context": 8681, "\u0120schools": 8682, "\u0120serve": 8683, "zone": 8684, "_db": 8685, "\u0120majority": 8686, "example": 8687, "\u0120lang": 8688, "\u0109\u0120\u0120": 8689, "Register": 8690, "endo": 8691, "\u0120processing": 8692, "_template": 8693, "-user": 8694, "\u0120eg": 8695, "COM": 8696, "\u0120Blue": 8697, "iro": 8698, "\u0120remote": 8699, "\u0120IT": 8700, "#!/": 8701, "\u0120redistrib": 8702, "raz": 8703, "\u0120Since": 8704, "\u0120Tur": 8705, "Background": 8706, "===": 8707, "\u0120reflect": 8708, "\u0120pros": 8709, "cmd": 8710, "\u0120whom": 8711, "Compat": 8712, "\u0120Are": 8713, "Identifier": 8714, "\u0120Thom": 8715, "_port": 8716, "gu": 8717, "\u0120monitor": 8718, "rm": 8719, "\u0120patient": 8720, "verter": 8721, "\u0120gain": 8722, "-ui": 8723, "Inst": 8724, "\u0120dies": 8725, "Area": 8726, "_filter": 8727, "\u0120grat": 8728, "\u0120reality": 8729, "ordinate": 8730, "olved": 8731, "Contact": 8732, "\u0120compliance": 8733, "_or": 8734, "\u0120Var": 8735, "dl": 8736, "\u0120append": 8737, "GER": 8738, "(max": 8739, ".render": 8740, "\u0120dynamic": 8741, "ordinates": 8742, "_options": 8743, "_column": 8744, "\u0120batter": 8745, "space": 8746, "La": 8747, "\u0120Source": 8748, "/bin": 8749, "\u0120dos": 8750, "\u0120Board": 8751, "\u0120Thread": 8752, "\u0120AL": 8753, "(config": 8754, "\u0120Mer": 8755, "\u0120miles": 8756, "_header": 8757, "ETHOD": 8758, "izz": 8759, "\u0120benefit": 8760, "\u0120integr": 8761, "(current": 8762, "ulo": 8763, ".default": 8764, "\u0120Div": 8765, "\u0120ton": 8766, "oth": 8767, "ervation": 8768, "edom": 8769, "\u0120baby": 8770, "ceived": 8771, ".top": 8772, "riority": 8773, "\u0120Local": 8774, "riage": 8775, "\u0120attacks": 8776, "\u0120hospital": 8777, "\u0120female": 8778, "\u0120Login": 8779, "\u0120Flor": 8780, "\u0120chain": 8781, "ashion": 8782, "Texture": 8783, "Save": 8784, "\u0120farm": 8785, ".contains": 8786, ".Test": 8787, "\u0120knows": 8788, "\u0120generally": 8789, "ipeline": 8790, "\u0120meant": 8791, "encia": 8792, "\u0120nicht": 8793, "\u0120contents": 8794, "PM": 8795, "chedule": 8796, "(line": 8797, "CG": 8798, "job": 8799, "\u0120Real": 8800, "uer": 8801, "firm": 8802, "\u0120\u00d8": 8803, "etro": 8804, "\"`\u010a": 8805, "\u0120speech": 8806, "\u0120thr": 8807, "foreach": 8808, "\u0120warn": 8809, "\u0109l": 8810, "\u0120heavy": 8811, "<li": 8812, "Ne": 8813, "\u0120investigation": 8814, "Math": 8815, "-title": 8816, "\u0120church": 8817, "\u0120despite": 8818, "chain": 8819, "\u0120whatever": 8820, "arian": 8821, "fn": 8822, "\u0120meta": 8823, "})\u010a\u010a": 8824, "UFF": 8825, "\u0120regarding": 8826, "_SUCCESS": 8827, "mes": 8828, "\u0120Intent": 8829, "\u0120resolve": 8830, "poss": 8831, "ira": 8832, "force": 8833, "oice": 8834, "\u00c3\u00a2": 8835, "\u0120pm": 8836, "\u0120updates": 8837, "Arr": 8838, "\u0120\u00d1": 8839, "testing": 8840, "\u0120toward": 8841, "ntax": 8842, "\u00eb\u012d": 8843, "\u0120listen": 8844, "\u0120goals": 8845, "InstanceState": 8846, "Dr": 8847, "\u0120rare": 8848, "\u0120trail": 8849, "Keys": 8850, "Cal": 8851, "Car": 8852, "\u0120People": 8853, "\u0109local": 8854, "classes": 8855, "Reference": 8856, ".forEach": 8857, "emb": 8858, "activ": 8859, "\u0120prim": 8860, "redict": 8861, "\u0120rad": 8862, "\u00e6\u0137\u00b0": 8863, ".Back": 8864, "\u0120spread": 8865, "\u0120clock": 8866, "\u0120vir": 8867, "editor": 8868, "\u0120efforts": 8869, "\u0120branch": 8870, "\u0120indust": 8871, "\u0120motor": 8872, "\u0120amb": 8873, "\u0120datetime": 8874, "\u0120rencont": 8875, "\u0120Christian": 8876, "\u0120Americans": 8877, "full": 8878, "\u0120fmt": 8879, ".main": 8880, "\u0120caused": 8881, "_update": 8882, "\u0120Content": 8883, "ATCH": 8884, "\u0120bath": 8885, "\u0120Each": 8886, "\u0120radio": 8887, "achment": 8888, "uzz": 8889, "Submit": 8890, "\u0120restrict": 8891, "abin": 8892, "\u0120Load": 8893, "\u0120extension": 8894, "\u0120essay": 8895, "\u0120hat": 8896, "aviour": 8897, "toBe": 8898, "\":[": 8899, "\u0120offered": 8900, "\u0120vill": 8901, "(double": 8902, "\u00e6\u0139\u00a5": 8903, "bc": 8904, "_free": 8905, "\u0120Miss": 8906, "\u0120Ber": 8907, "\u0120\u00e8": 8908, "\u0120Like": 8909, "\u0120helped": 8910, ".getName": 8911, "_AL": 8912, "\u0120spirit": 8913, "\u0120Apache": 8914, "ws": 8915, "\u0120therefore": 8916, "(params": 8917, "_img": 8918, "\u0120peace": 8919, "\u0120incor": 8920, "\u0120EXPECT": 8921, "\u0120minor": 8922, "ipes": 8923, "\u0109data": 8924, "selector": 8925, "city": 8926, "trie": 8927, ".base": 8928, "_frame": 8929, "\u0120opened": 8930, "/json": 8931, "LY": 8932, "nu": 8933, ".De": 8934, "tf": 8935, "margin": 8936, ".Parse": 8937, "\u0120pi": 8938, "\u0120eq": 8939, "bd": 8940, "Fields": 8941, "\u0120Tree": 8942, "\u0120ban": 8943, "istan": 8944, "\u010a\u0120\u0120\u0120\u0120\u0120\u0120\u0120\u0120\u010a": 8945, "\u0109gl": 8946, "\u0120produced": 8947, "system": 8948, "Mark": 8949, "_hash": 8950, "\u0120bg": 8951, "\u0120constit": 8952, "\u0120League": 8953, "\u0120mission": 8954, "_format": 8955, "([\u010a": 8956, "clusion": 8957, "!\"": 8958, "\u00d0\u00b7": 8959, "break": 8960, "\u0109switch": 8961, "\u0120ther": 8962, "Transform": 8963, "\u0120football": 8964, "-link": 8965, "route": 8966, ".auth": 8967, "\u0120bag": 8968, "overs": 8969, "\u0120enabled": 8970, "\u0120rac": 8971, "(I": 8972, "CR": 8973, "ancing": 8974, "\u0120managed": 8975, "_q": 8976, "NGTH": 8977, "\u0120mac": 8978, "\u0120Auto": 8979, "amente": 8980, "\u0120'',": 8981, ".Append": 8982, "\u0120pin": 8983, ".item": 8984, "acking": 8985, "\u0120occas": 8986, "person": 8987, "\u0120ti": 8988, ".Reg": 8989, "\u0120haven": 8990, "\u0120glass": 8991, "\u0120\"</": 8992, "\u0120Simple": 8993, "Print": 8994, "\u0120surround": 8995, "NO": 8996, "\u00e3\u0122\u0124\u010a": 8997, "\u0120\u0120\u0120\u0120\u0120\u0120\u0120\u0120\u010d\u010a": 8998, "\u0120Many": 8999, "\u0120\"_": 9000, "\u0120weekend": 9001, "\u0120somew": 9002, ".params": 9003, "small": 9004, "ATED": 9005, "\u0120plugin": 9006, "fields": 9007, "\u0120Initialize": 9008, "oon": 9009, "atile": 9010, "ye": 9011, "\u0120vous": 9012, "LAG": 9013, "\u0120older": 9014, "\u0120gam": 9015, "\u0120extremely": 9016, "\u0120het": 9017, "enum": 9018, "\u0120SET": 9019, "xff": 9020, "\u0120timer": 9021, "/index": 9022, "\u0120critical": 9023, "Rows": 9024, "_argument": 9025, "\u0120execute": 9026, "\u0120showing": 9027, ".xml": 9028, "-list": 9029, "Role": 9030, "typename": 9031, "_method": 9032, "that": 9033, "cher": 9034, "\u0120\u00e2\u0128": 9035, "XT": 9036, "\u0120thousands": 9037, "\u0109n": 9038, "\u0120resp": 9039, "_price": 9040, "olut": 9041, "Ag": 9042, "\u0120Two": 9043, "\u0120becomes": 9044, "\u0120hus": 9045, ".Use": 9046, "theme": 9047, "urb": 9048, "\u0120/*\u010a": 9049, "erialize": 9050, "ARN": 9051, "\u0120lose": 9052, "Lower": 9053, "\u0120vel": 9054, "\u0120defense": 9055, "condition": 9056, "\u0120bes": 9057, "\u0120dry": 9058, "\u0120scroll": 9059, ".Show": 9060, "IEL": 9061, "\u00d0\u00be\u00d1\u0122": 9062, "\u0120Rest": 9063, "Where": 9064, "oods": 9065, "\u0120Jes": 9066, "\u0120wire": 9067, "_INFO": 9068, "\u0120strings": 9069, "gment": 9070, "\u0120matches": 9071, "\u0120electric": 9072, "\u0120excellent": 9073, "\u0120Council": 9074, "idade": 9075, "\u0120wx": 9076, "push": 9077, "_entry": 9078, "\u0120tasks": 9079, "\u0120rich": 9080, "sa": 9081, "\u0120Smith": 9082, "UNCTION": 9083, "Pointer": 9084, "pective": 9085, "\u0120widget": 9086, "ista": 9087, "\u0120agency": 9088, "\u0120sich": 9089, "ologies": 9090, "\u0120trial": 9091, "alysis": 9092, ".check": 9093, "ARK": 9094, "\u0120onChange": 9095, "about": 9096, "',$": 9097, "(val": 9098, "\u0120placed": 9099, "_NO": 9100, "\u0120dan": 9101, ".equal": 9102, "\u0109\u0120\u0120\u0120\u0120\u0120": 9103, "\u0120weather": 9104, ".game": 9105, "\u0120destination": 9106, "_USER": 9107, "iece": 9108, "\u0120provider": 9109, ".last": 9110, "plex": 9111, "Note": 9112, "/js": 9113, "\u0120p\u00c3\u00a5": 9114, "\u0120planning": 9115, "attribute": 9116, "PRO": 9117, "atches": 9118, "\u0120<-": 9119, "\u0120seeing": 9120, "\u0120cancel": 9121, "_ind": 9122, ".keys": 9123, "\u0120visual": 9124, "\u0120Current": 9125, "\u0120College": 9126, "\u0120Rock": 9127, "\u0120agreement": 9128, "\u0120Store": 9129, "oving": 9130, "\u0120corner": 9131, "ampions": 9132, "ISE": 9133, "Fin": 9134, "\u0120protection": 9135, "\u0120fi": 9136, "Play": 9137, "plugin": 9138, ")}": 9139, ".frame": 9140, "-z": 9141, "\u0120transition": 9142, "igin": 9143, "\u0120candidate": 9144, "\u0120Union": 9145, "_values": 9146, "(map": 9147, "cle": 9148, "\u0120trend": 9149, "wide": 9150, "aren": 9151, "Loc": 9152, "UTH": 9153, "\u0120Bay": 9154, "\u0120smaller": 9155, "ius": 9156, "well": 9157, "\u0120criminal": 9158, "\u0120conflic": 9159, "bert": 9160, "_INT": 9161, "\u0120investment": 9162, "custom": 9163, "\u0120Session": 9164, "_write": 9165, "ania": 9166, "\u0120Mass": 9167, "_EQ": 9168, "_NOT": 9169, "\u0120violence": 9170, "Argument": 9171, "_email": 9172, "\u0120belong": 9173, "_function": 9174, "\u0120enemy": 9175, "ema": 9176, "\u0120Address": 9177, ".empty": 9178, "\u0120inner": 9179, "\u0120Contact": 9180, "Loader": 9181, "<input": 9182, "\u0120CA": 9183, "lot": 9184, "\u0120pictures": 9185, "\u0120Support": 9186, "_names": 9187, "Layer": 9188, "\u0120Click": 9189, "Sum": 9190, "\u00c3\u00a6": 9191, "\u0120Look": 9192, "uous": 9193, "Lib": 9194, "Flags": 9195, "team": 9196, "EP": 9197, "hat": 9198, "override": 9199, "apsed": 9200, "\u0120labels": 9201, "quis": 9202, "\u0120Stream": 9203, "_device": 9204, "\u0120Commit": 9205, "(root": 9206, "\"}": 9207, ".isEmpty": 9208, "\u0109M": 9209, "\u0120angle": 9210, "\u0120Because": 9211, "%%%%%%%%": 9212, "\u0120aim": 9213, "\u0120stick": 9214, "stmt": 9215, "agraph": 9216, "answer": 9217, "\u0120clin": 9218, "\u0120Isl": 9219, ".ext": 9220, "\u0120INT": 9221, "\u0120styles": 9222, "\u0120born": 9223, "\u0120scr": 9224, "\u0120expand": 9225, "\u0120raised": 9226, "TextBox": 9227, "ILL": 9228, "------------------------------------------------": 9229, "HTTP": 9230, ">)": 9231, "_char": 9232, "resource": 9233, "\u0120episode": 9234, "\u0120'_": 9235, "\u0120Es": 9236, "\u0120Earth": 9237, "\u00c2\u0142\u00c2\u0142": 9238, "UPDATE": 9239, "\u0120Sou": 9240, "uis": 9241, "types": 9242, "\u0120mas": 9243, "\u0120fav": 9244, "\u0120construct": 9245, "_rate": 9246, "eras": 9247, "\u0120|\u010a": 9248, "roperties": 9249, "\u0120external": 9250, "\u0120applied": 9251, "\u0120prefix": 9252, "oted": 9253, "lers": 9254, "\u0120cold": 9255, "\u0120SP": 9256, "\u0120Church": 9257, "\u0120Output": 9258, "losed": 9259, "\u00e7\u013c": 9260, "ificate": 9261, "operation": 9262, "herit": 9263, "xFF": 9264, ".env": 9265, "_err": 9266, "osh": 9267, "Direction": 9268, "Cancel": 9269, "\u0120Frank": 9270, "\u0120finding": 9271, ".)\u010a\u010a": 9272, "\u0120router": 9273, "\u00e3\u0125\u00bb": 9274, "ses": 9275, "\u0120crow": 9276, "=='": 9277, "\u0120sand": 9278, "\u0120rid": 9279, "iture": 9280, "\u0120entre": 9281, "\u0120observ": 9282, "\u0120vac": 9283, "\u00f0\u0141": 9284, "-T": 9285, "Art": 9286, "night": 9287, ".search": 9288, "\u0120exchange": 9289, "\u0120district": 9290, ".os": 9291, "\u0120department": 9292, "\u0120documents": 9293, "\u0120century": 9294, "\u0120Next": 9295, "Host": 9296, "\u0120KIND": 9297, "\u0120susp": 9298, "-P": 9299, "rend": 9300, ".em": 9301, "uite": 9302, "isters": 9303, "(json": 9304, "\u0120Ann": 9305, "wt": 9306, "ati": 9307, "\u0120HTML": 9308, "when": 9309, "Directory": 9310, "\u0120shut": 9311, "<a": 9312, "edy": 9313, "\u0120healthy": 9314, "\u0120temperature": 9315, "\u0120Gen": 9316, "\u0120metal": 9317, "\u0120submit": 9318, "\u0120DO": 9319, "\u0120attract": 9320, "\u0120{};\u010a": 9321, "\u0120Word": 9322, "\u0120ll": 9323, "\u0120seemed": 9324, "ko": 9325, "IED": 9326, "\u0120labor": 9327, ".Context": 9328, "\u0120asset": 9329, "you": 9330, "\u0120cars": 9331, "\u0120Column": 9332, "\u0120r\u00c3\u00a9": 9333, "\u0120square": 9334, "\u0120NSString": 9335, "\u00e2\u0122\u013f,": 9336, "apes": 9337, "...\u010a": 9338, "\u0120thanks": 9339, "(props": 9340, "\u0120tick": 9341, "\u0120experiment": 9342, "\u0120prison": 9343, "tree": 9344, "-text": 9345, "\u0120IOException": 9346, "-width": 9347, "_STATUS": 9348, "fast": 9349, "-body": 9350, "-header": 9351, "\u0120guar": 9352, "crete": 9353, "\u0120Tim": 9354, "\u0120clearly": 9355, "\u0120Republican": 9356, "\u0120justify": 9357, "\u00d0\u00b8\u00d1\u0124": 9358, "\u0109\u0120\u0120\u0120\u0120": 9359, "cache": 9360, ";//": 9361, "\u0120presence": 9362, "\u0120factors": 9363, "\u0120employee": 9364, "]))": 9365, "Member": 9366, "\u0120selector": 9367, "bor": 9368, "\u0120Mex": 9369, "\u00e7\u013c\u0126": 9370, "utex": 9371, "_tag": 9372, "ailure": 9373, "\u0120Net": 9374, "\u0120reli": 9375, "EG": 9376, "\u0120fprintf": 9377, "\u0120teen": 9378, "loss": 9379, "\u0120leaving": 9380, "Delegate": 9381, "\u0120beat": 9382, "\u0120minute": 9383, "subscribe": 9384, "\u0120redistribute": 9385, "Constants": 9386, "\u0120cancer": 9387, "/{": 9388, "BL": 9389, "\u0120span": 9390, "\u0120Child": 9391, "Center": 9392, "\u0120earth": 9393, "YS": 9394, "\u0120Level": 9395, "\u0120sea": 9396, ".support": 9397, ".inner": 9398, ".Item": 9399, "illing": 9400, "\u0120\u0120\u0120\u0120\u010a\u0120\u0120\u0120\u0120\u010a": 9401, "\u0120Label": 9402, "\u0120Est": 9403, "(arg": 9404, "boBox": 9405, "\u0109foreach": 9406, "cos": 9407, "Failed": 9408, "swers": 9409, "Editor": 9410, "ront": 9411, "\u0120MP": 9412, "expr": 9413, "\u0120Life": 9414, "\u0120??": 9415, "\u00c3\u00b6r": 9416, "\u0120attend": 9417, "\u0120Que": 9418, "\u0120species": 9419, "-D": 9420, "\u0120aus": 9421, "Struct": 9422, "\u0120advantage": 9423, "oston": 9424, "-block": 9425, "initial": 9426, "CRE": 9427, "\u0120truly": 9428, "\u0120compare": 9429, "orney": 9430, "\u0120spect": 9431, "Full": 9432, "bes": 9433, "\u0120visible": 9434, "\u0120mess": 9435, "stances": 9436, "\u0120cloud": 9437, "_version": 9438, "\u0120furn": 9439, "icago": 9440, "LOW": 9441, "\u0120traffic": 9442, "\u0120fol": 9443, "rypto": 9444, "\u0120declar": 9445, "\u0120slot": 9446, "\u0120Ext": 9447, "\u0120England": 9448, "\u0120Under": 9449, "\u0120ta": 9450, "letter": 9451, "\u0120officer": 9452, "\u0120Donald": 9453, "Yes": 9454, "_json": 9455, "ITableView": 9456, "\u0120USE": 9457, "mployee": 9458, "\u0120opinion": 9459, "\u0120Aut": 9460, "border": 9461, "\u0120advice": 9462, "\u0120automatically": 9463, "isco": 9464, "\u0120mm": 9465, ".vis": 9466, "aml": 9467, "\u0120initialize": 9468, "\u0120({": 9469, "\u0120;\u010a\u010a": 9470, "\u0120generation": 9471, "\u0120bits": 9472, "clipse": 9473, "\u0120unf": 9474, "utors": 9475, "plt": 9476, "\u0120delta": 9477, "estroy": 9478, "isis": 9479, "<br": 9480, "\u0120limitations": 9481, "\u0120ended": 9482, "\u0120Mad": 9483, "ilm": 9484, "These": 9485, "\u0120Minister": 9486, "\u0120chart": 9487, "Fragment": 9488, "\u0120independent": 9489, "Year": 9490, "\u0120instr": 9491, "\u0120tags": 9492, "AVE": 9493, "\u0120Arch": 9494, "stop": 9495, "Progress": 9496, "\u0120mi": 9497, "\u0120learned": 9498, "Ge": 9499, "\u0120hotel": 9500, "SM": 9501, "TYPE": 9502, "\u0120cy": 9503, "ERSION": 9504, "unately": 9505, "limit": 9506, "sel": 9507, "\u0120movies": 9508, "\u0120steel": 9509, "oz": 9510, "gb": 9511, "\u0120Camp": 9512, "site": 9513, "\u0120Logger": 9514, "PLE": 9515, "\u00d0\u00be\u00d0\u00b4": 9516, ".right": 9517, "\u0120Core": 9518, "\u0120mixed": 9519, "step": 9520, "\u0120puts": 9521, "super": 9522, "Router": 9523, ".Http": 9524, "lyph": 9525, "\u0120Colors": 9526, "\u0120androidx": 9527, ".str": 9528, "\u0120innov": 9529, "\u0120deck": 9530, "'>\u010a": 9531, "apers": 9532, "](": 9533, "continue": 9534, "spec": 9535, "\u0120Road": 9536, "ASH": 9537, "iliar": 9538, "\u0120continues": 9539, "\u0120appoint": 9540, "\u0120#\u010a": 9541, "\u0120Vir": 9542, "\u0120?>\"": 9543, "\u0120bin": 9544, "}\",": 9545, "going": 9546, "each": 9547, "BD": 9548, "\u0120Access": 9549, "Doc": 9550, "\u0120Management": 9551, "BER": 9552, "asket": 9553, ".getInstance": 9554, "\u0120established": 9555, "socket": 9556, "INS": 9557, "\u0109virtual": 9558, "\u0109result": 9559, "READ": 9560, "_height": 9561, "\u0120Font": 9562, "\u0120();\u010a": 9563, "_html": 9564, "\u0120neighbor": 9565, "lor": 9566, "\u0120gather": 9567, "\u0120})\u010a\u010a": 9568, "\u0120identity": 9569, "\u0120fab": 9570, "padding": 9571, "\u0120Route": 9572, "Enumerable": 9573, "\u00c3\u00b4": 9574, "\u0120forced": 9575, "/jquery": 9576, ".\u010a\u010a\u010a\u010a\u010a\u010a": 9577, "resents": 9578, "_left": 9579, ".Param": 9580, "\u0109throw": 9581, "\u0120Ham": 9582, "\u0120eventually": 9583, "acer": 9584, "pub": 9585, "\u0120tra": 9586, "unique": 9587, "del": 9588, "\u0120Florida": 9589, "\u0120Clean": 9590, "xa": 9591, "\u0120\u00c2\u00b7": 9592, "\u0120validate": 9593, "Visual": 9594, "Expression": 9595, "_func": 9596, "member": 9597, "\u0109h": 9598, "trl": 9599, "\u0109G": 9600, "napshot": 9601, "\u0120PropTypes": 9602, "vin": 9603, "])\u010a\u010a": 9604, "owl": 9605, "ifies": 9606, "\u0120$('.": 9607, "\u0120Context": 9608, "\u0120Toast": 9609, ".Key": 9610, "\u0120officers": 9611, "/n": 9612, "sn": 9613, "undefined": 9614, ".items": 9615, "utow": 9616, "amage": 9617, "\u0120accounts": 9618, "ookie": 9619, "Section": 9620, "icians": 9621, "\u0120advis": 9622, "(is": 9623, "[:,": 9624, "\u0120France": 9625, "Func": 9626, "icious": 9627, "\u0120tok": 9628, "Channel": 9629, "\u0120AD": 9630, "_NUM": 9631, "\u0120timeout": 9632, "lemma": 9633, "reme": 9634, "uj": 9635, ".Al": 9636, "uclear": 9637, "(os": 9638, "(\"<": 9639, "[\u010a": 9640, "fetch": 9641, "\u0120bal": 9642, "\u0120guid": 9643, "-align": 9644, "\u0120Write": 9645, "\u0120Once": 9646, "utowired": 9647, "ODULE": 9648, "\u0120pitch": 9649, "CF": 9650, "bytes": 9651, "\u0120Commission": 9652, "\u0120incred": 9653, "PER": 9654, "_response": 9655, "\u0120Los": 9656, "parser": 9657, "\u0120assume": 9658, ".Request": 9659, "\u0120Token": 9660, "_position": 9661, "\u0120nom": 9662, "-term": 9663, "\u0120remaining": 9664, "iostream": 9665, "\u0120pieces": 9666, "apy": 9667, "\u0120Less": 9668, "range": 9669, "umbn": 9670, "prise": 9671, "_option": 9672, "Impl": 9673, "kwargs": 9674, "\u0120businesses": 9675, "Alert": 9676, "\u0120parties": 9677, "\u0120Container": 9678, "\u0120Private": 9679, "\u0120Plan": 9680, "\u0120registered": 9681, "\u0120jour": 9682, "acker": 9683, "\u00d0\u00b5\u00d0\u00bd\u00d0\u00b8": 9684, "/>": 9685, "chat": 9686, "sect": 9687, "\u0120creation": 9688, "olutely": 9689, "\u0120instant": 9690, "\u0120delivery": 9691, "icken": 9692, "yes": 9693, "\u0120Franc": 9694, "bling": 9695, "enda": 9696, "[(": 9697, "_range": 9698, "\u0120\u0120\u0120\u0120\u0120\u0120\u0120\u0120\u0120\u0120\u0120\u0120\u0120\u0120\u0120\u0120\u0120\u0120\u0120\u0120\u0120\u0120\u0120\u0120\u0120\u0120\u0120\u0120\u0120\u0120\u0120\u0120\u0120\u0120": 9699, "\u0120schedule": 9700, "Conn": 9701, "\u0120thank": 9702, "xd": 9703, "\u0120hook": 9704, "\u0120documentation": 9705, "Parameters": 9706, "Hello": 9707, "vt": 9708, "\u0120articles": 9709, "\u0120west": 9710, "defined": 9711, ".select": 9712, "okens": 9713, "\u0120VAL": 9714, ".file": 9715, "reset": 9716, "\u0120mys": 9717, "\u0120MA": 9718, "]),": 9719, "\u0120cities": 9720, "related": 9721, "\u00e5\u013d": 9722, "\u0120appeared": 9723, "\u0120wid": 9724, ".panel": 9725, "\u0120Ins": 9726, ".entity": 9727, "\u0120decre": 9728, "\u0120Lou": 9729, "(time": 9730, "\u0120Thank": 9731, ".createElement": 9732, "\u0120mentioned": 9733, "ounce": 9734, "\u0120Try": 9735, "\u0120Wall": 9736, "/images": 9737, "\u0120Menu": 9738, "'\u010d\u010a": 9739, "\u0120Er": 9740, "\u0120critic": 9741, "\u0120Year": 9742, "(param": 9743, "\u0120flo": 9744, "NN": 9745, "ooter": 9746, "\u0120];\u010a": 9747, "\u0120Aff": 9748, "\"github": 9749, "rooms": 9750, "\u0120hyp": 9751, "global": 9752, "\u0120avec": 9753, "\u00e6\u013e\u012a": 9754, "\u0120completion": 9755, "\u0120cond": 9756, "onymous": 9757, "(temp": 9758, "\u0120stars": 9759, "\u0120relevant": 9760, "\u0120covered": 9761, "\u0120elim": 9762, "_types": 9763, "(bool": 9764, "\u0120tu": 9765, "_exists": 9766, "\u0120secure": 9767, "\u0120stored": 9768, "]/": 9769, "xF": 9770, "\u0120Controller": 9771, "\u0120migr": 9772, "MI": 9773, "\u0120Den": 9774, "\u0120annual": 9775, "UIL": 9776, "-and": 9777, "\u0120crime": 9778, "bel": 9779, "\u0120kitchen": 9780, "@g": 9781, "_ph": 9782, "ournament": 9783, "\u0120Social": 9784, "\u0120Special": 9785, "logger": 9786, "\u0120tail": 9787, "\u0120unknown": 9788, "ded": 9789, "\u0120apprec": 9790, "(db": 9791, "cf": 9792, "\u0120assign": 9793, "-out": 9794, "\u0120Mont": 9795, "dp": 9796, "widget": 9797, "\u0120stone": 9798, "-primary": 9799, ".grid": 9800, "Results": 9801, "azz": 9802, "\u0120daughter": 9803, "\u0120curr": 9804, "\u0120lin": 9805, "\u0120south": 9806, "forms": 9807, "\u0120OUT": 9808, "lette": 9809, "aks": 9810, "igure": 9811, "\u0120EU": 9812, "variable": 9813, "\u0120brief": 9814, "\u0120Scott": 9815, "\u0120conference": 9816, "anda": 9817, "_lock": 9818, "oral": 9819, "\u0120eine": 9820, "ORS": 9821, "////////////////////////////////////////////////////////////////": 9822, "esso": 9823, "\u0120ris": 9824, "\u0120gender": 9825, "estic": 9826, "License": 9827, "(out": 9828, "\u0120ms": 9829, "See": 9830, "\u0120willing": 9831, "aze": 9832, "\u0120sports": 9833, "\u0120yes": 9834, "lu": 9835, "\u0120purs": 9836, "/javascript": 9837, "-pro": 9838, "navbar": 9839, "_product": 9840, "/bootstrap": 9841, "\u0120driving": 9842, "\u0120\u00c4": 9843, "\u0120propos": 9844, "ultip": 9845, "uplic": 9846, ".email": 9847, "\u0120approx": 9848, "(cl": 9849, "\u0120wear": 9850, "\u0120reply": 9851, "asset": 9852, "\u0120ice": 9853, "\u0120tx": 9854, "kr": 9855, "\u0120Germany": 9856, "\u0120George": 9857, "\u0120cb": 9858, "\u0109err": 9859, "Move": 9860, "\u0120poly": 9861, "voice": 9862, "}\"": 9863, "\u0120animal": 9864, "Av": 9865, "\u0120Location": 9866, "\u0120native": 9867, "][\"": 9868, "<double": 9869, "\u0120mais": 9870, ",int": 9871, "\u0120prepar": 9872, "\u0120interval": 9873, "plementation": 9874, "_ERR": 9875, "\u0120bug": 9876, ">\"": 9877, "stat": 9878, "\u0120},\u010d\u010a": 9879, "<span": 9880, "\u0120faith": 9881, "\u0120rom": 9882, "prev": 9883, "\u0120Elect": 9884, "Find": 9885, "\u0120god": 9886, "otor": 9887, "//----------------------------------------------------------------": 9888, "original": 9889, "Cpp": 9890, "\u0120Senate": 9891, "\u0120positions": 9892, "\u0120weapons": 9893, "\u0120coff": 9894, "\u0120purposes": 9895, "pol": 9896, "\u0120impress": 9897, "\u0120animals": 9898, ".Entity": 9899, "(np": 9900, "\u0120murder": 9901, "\u0120``": 9902, "flag": 9903, "\u0120solutions": 9904, "\u0120Active": 9905, "\u0120bright": 9906, ".date": 9907, "\u0120situ": 9908, "\u00ef\u00bc\u012a": 9909, ".ID": 9910, "\u0120sie": 9911, "),\u010d\u010a": 9912, "akt": 9913, "Space": 9914, ".dat": 9915, ".indexOf": 9916, "han": 9917, "azine": 9918, "\u0120Ze": 9919, "\u0120crash": 9920, "(/": 9921, ">=": 9922, "\u00d0\u00b1": 9923, "iva": 9924, ".AutoSize": 9925, "\u0120Lat": 9926, "_ext": 9927, "Initialize": 9928, ".register": 9929, "OPY": 9930, "\u0120reverse": 9931, "_dis": 9932, "'][": 9933, "\u0120prompt": 9934, "onto": 9935, "\u0120Journal": 9936, "router": 9937, "\u0120mysqli": 9938, "#else": 9939, ")\"": 9940, "-xs": 9941, "lets": 9942, "phan": 9943, ".LE": 9944, "Will": 9945, "\u0120afford": 9946, "\u0120skill": 9947, "-toggle": 9948, "NC": 9949, "Bind": 9950, "TS": 9951, "Just": 9952, "iteral": 9953, "YP": 9954, "\u0109unsigned": 9955, "\u0120wind": 9956, ")):\u010a": 9957, "\u0120warning": 9958, "\u0120Water": 9959, "\u0120draft": 9960, "\u0120cm": 9961, "\u0120sam": 9962, "\u0120holding": 9963, "zip": 9964, "\u0120Science": 9965, "\u0120supposed": 9966, "Gen": 9967, "\u0120diet": 9968, "<h": 9969, "\u0120Pass": 9970, "vi": 9971, "\u0120husband": 9972, "\u00ef\u00bf\u00bd\u00ef\u00bf\u00bd": 9973, "note": 9974, "\u0120About": 9975, "\u0120Institute": 9976, "\u0120climate": 9977, ".Format": 9978, "\u0120nut": 9979, "ested": 9980, "\u0120apparent": 9981, "\u0120holds": 9982, "fi": 9983, "news": 9984, "CM": 9985, "video": 9986, "':'": 9987, "DITION": 9988, "ping": 9989, "\u0120senior": 9990, "wa": 9991, "-->\u010a": 9992, "_default": 9993, "\u0120Database": 9994, "rep": 9995, "ESS": 9996, "nergy": 9997, ".Find": 9998, "_mask": 9999, "\u0120rise": 10000, "\u0120kernel": 10001, "::$": 10002, ".Q": 10003, "\u0120offering": 10004, "decl": 10005, "\u0120CS": 10006, "\u0120listed": 10007, "\u0120mostly": 10008, "enger": 10009, "\u0120blocks": 10010, "olo": 10011, "\u0120governing": 10012, "\\F": 10013, "\u0120concent": 10014, ".getText": 10015, "\u0120mb": 10016, "\u0120occurred": 10017, "\u0120changing": 10018, "Scene": 10019, "_CODE": 10020, "Beh": 10021, "\"The": 10022, "\u0120tile": 10023, "\u0120Association": 10024, "\u0109P": 10025, "alty": 10026, "_ad": 10027, "odies": 10028, "iated": 10029, "\u0120prepared": 10030, "possible": 10031, "\u0120mort": 10032, "TEST": 10033, "\u0120ignore": 10034, "\u0120calc": 10035, "\u0120rs": 10036, "\u0120assertEquals": 10037, "\u0120sz": 10038, "\u0120THIS": 10039, ".\"\u010a": 10040, "\u0120canvas": 10041, "java": 10042, "\u0120dut": 10043, "VALID": 10044, ".sql": 10045, ".input": 10046, "\u0120aux": 10047, "Sup": 10048, "\u0120artist": 10049, "Vec": 10050, "_TIME": 10051, ".stringify": 10052, "etween": 10053, "\u0120Category": 10054, "\u0120[-": 10055, "\u0120DevExpress": 10056, "\u0120Jul": 10057, "\u0120ring": 10058, ".ed": 10059, "YY": 10060, "Let": 10061, "TextField": 10062, "\u0120flat": 10063, "_print": 10064, "\u0120OTHER": 10065, "adian": 10066, "\u0120checked": 10067, "ele": 10068, "Align": 10069, "standing": 10070, "\u0120[],": 10071, "\u0120lab": 10072, "ucky": 10073, "\u0120Christmas": 10074, "(image": 10075, ".module": 10076, "\u0120lots": 10077, "\u0120slightly": 10078, "(final": 10079, "erge": 10080, "\u00e8\u00bf": 10081, "\u0120Police": 10082, "\u0120Right": 10083, "\u0120award": 10084, "\u0120OS": 10085, "\u0120{}\u010a\u010a": 10086, "\u0120ptr": 10087, "oves": 10088, "icated": 10089, "\u00d0\u00b5\u00d0\u00bc": 10090, "\u0120manage": 10091, "oliday": 10092, "Amount": 10093, "oolStrip": 10094, "tbody": 10095, "Nav": 10096, "wrap": 10097, "BB": 10098, "\u0120watching": 10099, "arios": 10100, "\u0120optional": 10101, "_K": 10102, "\u0120Licensed": 10103, ".Map": 10104, "Timer": 10105, "\u0120AP": 10106, "\u0120Rev": 10107, "(o": 10108, ",c": 10109, "umin": 10110, "etailed": 10111, "\u0120Hy": 10112, "\u0120blank": 10113, "agger": 10114, "\u0120Self": 10115, "()[": 10116, ".make": 10117, "earn": 10118, "channel": 10119, "<pre": 10120, "blem": 10121, "_password": 10122, "_sp": 10123, "icing": 10124, "ez": 10125, "\u0120theory": 10126, "\u0120Ter": 10127, ",n": 10128, "logo": 10129, "\u0120HTTP": 10130, "()))": 10131, ".handle": 10132, ">;\u010a": 10133, "World": 10134, "\u0120python": 10135, "\u0120lif": 10136, "\u0120trav": 10137, "\u0120conven": 10138, "company": 10139, "\u0120Club": 10140, "Ver": 10141, "Btn": 10142, "\u0120zone": 10143, "products": 10144, "\u0120Educ": 10145, "\u0120verify": 10146, "\u0120Mil": 10147, "ono": 10148, "]);\u010a\u010a": 10149, "ENCE": 10150, "\u0120packet": 10151, "\u0120cer": 10152, "\u0120enumer": 10153, "\u0120pars": 10154, "formed": 10155, "\u0120occup": 10156, "tre": 10157, "\u0120exercise": 10158, "Day": 10159, "_sum": 10160, "\u0120asking": 10161, "aption": 10162, "\u0120orders": 10163, "\u0120spending": 10164, "\u0120ERR": 10165, ".Dis": 10166, "\u0120Util": 10167, "\u00e2\u0122\u013eI": 10168, "\\'": 10169, "?)": 10170, "/>\u010a": 10171, "\u0120emot": 10172, "\u0120influence": 10173, "\u0120Africa": 10174, "atters": 10175, "\u00d9\u0127": 10176, ".session": 10177, "\u0120chief": 10178, "\u0109\u0109\u0109\u0109\u0109\u0109\u0109\u0109\u0109\u0109\u0109": 10179, "\u0120tom": 10180, "cluded": 10181, "serial": 10182, "_handler": 10183, ".Type": 10184, "aped": 10185, "\u0120policies": 10186, "-ex": 10187, "-tr": 10188, "blank": 10189, "merce": 10190, "\u0120coverage": 10191, "\u0120rc": 10192, "_matrix": 10193, "_box": 10194, "\u0120charges": 10195, "\u0120Boston": 10196, "Pe": 10197, "\u0120circum": 10198, "\u0120filled": 10199, "\u0120north": 10200, "ictureBox": 10201, "\u0109res": 10202, "\u00e8\u00ae": 10203, "\u0120termin": 10204, "\u0120[\u00e2\u0122\u00a6": 10205, "IRECT": 10206, "\u0120ber": 10207, "\u0120\"../../": 10208, "retch": 10209, ".code": 10210, "_col": 10211, "\u0120Government": 10212, "\u0120argv": 10213, "\u0120Lord": 10214, "asi": 10215, "Exec": 10216, "\u0109let": 10217, "vertis": 10218, "\u0120discussion": 10219, "enance": 10220, "outube": 10221, "typeof": 10222, "\u0120served": 10223, "\u0120Put": 10224, "\u0109x": 10225, "\u0120sweet": 10226, "Before": 10227, "ategy": 10228, ".of": 10229, "\u0120Material": 10230, "Sort": 10231, "ONT": 10232, "igital": 10233, "Why": 10234, "\u0120sust": 10235, "\u0120\u00e7": 10236, "abet": 10237, "\u0120segment": 10238, "\u0120[],\u010a": 10239, "\u0120Muslim": 10240, "\u0120findViewById": 10241, "cut": 10242, "_TEXT": 10243, "\u0120Mary": 10244, "\u0120loved": 10245, "\u0120lie": 10246, "\u0120JO": 10247, "\u0120isset": 10248, "month": 10249, "\u0120prime": 10250, "ti": 10251, "\u0120Carol": 10252, "Use": 10253, "\u0120Pop": 10254, "\u0120Save": 10255, "Interval": 10256, "execute": 10257, "dy": 10258, "\u0120Iran": 10259, "_cont": 10260, "\u0109T": 10261, "\u0120phase": 10262, "checkbox": 10263, "week": 10264, "\u0120hide": 10265, "\u0120til": 10266, "\u0120ju": 10267, "Custom": 10268, "burg": 10269, "/M": 10270, "TON": 10271, "\u0120quant": 10272, "\u0120rub": 10273, "ixels": 10274, "\u0120installed": 10275, "\u0120dump": 10276, "\u0120properly": 10277, "(List": 10278, "\u0120decide": 10279, "apply": 10280, "Has": 10281, "\u0120keeping": 10282, "\u0120citizens": 10283, "\u0120joint": 10284, "pool": 10285, "Socket": 10286, "_op": 10287, "\u0120weapon": 10288, "gnore": 10289, "\u0120Exec": 10290, "otten": 10291, "\u0120MS": 10292, "\u0120(-": 10293, "\u0120Review": 10294, "\u0120examples": 10295, "\u0120tight": 10296, "!(": 10297, "DP": 10298, "\u0120MessageBox": 10299, "\u0120photograph": 10300, "URI": 10301, "\u00c3\u00a9t": 10302, "low": 10303, "\u0120Grand": 10304, ".persistence": 10305, "\u0120maintain": 10306, "\u0120nums": 10307, "\u0120zip": 10308, "ials": 10309, "\u0120Gets": 10310, "peg": 10311, "\u0120Buffer": 10312, "~~~~": 10313, "rastructure": 10314, "\u0120PL": 10315, "uen": 10316, "obby": 10317, "sizeof": 10318, "\u0120pic": 10319, "\u0120seed": 10320, "\u0120experienced": 10321, "\u0120odd": 10322, "\u0120kick": 10323, "\u0120procedure": 10324, "avigator": 10325, "-on": 10326, ",j": 10327, "\u0120Although": 10328, "\u0120userId": 10329, "accept": 10330, "Blue": 10331, "IColor": 10332, "layer": 10333, "available": 10334, "\u0120ends": 10335, ".table": 10336, "\u0120dataset": 10337, "bus": 10338, "\u0120explain": 10339, "(pro": 10340, "\u0120Committee": 10341, "\u0120noted": 10342, "]:\u010a": 10343, "Dim": 10344, "stdio": 10345, ".\",\u010a": 10346, "_source": 10347, "\u0120Week": 10348, "\u0120Edge": 10349, "\u0120operating": 10350, "\u0120este": 10351, "ipl": 10352, "agination": 10353, "\u0120proceed": 10354, "\u0120animation": 10355, ".Models": 10356, "\u0120Watch": 10357, "iat": 10358, "\u0120oppon": 10359, "/A": 10360, "Report": 10361, "\u0120sounds": 10362, "_buf": 10363, "IELD": 10364, "\u0120bund": 10365, "\u0109get": 10366, ".pr": 10367, "(tmp": 10368, "\u0120kid": 10369, ">\u010a\u010a\u010a": 10370, "\u0120yang": 10371, "NotFound": 10372, "\u00d1\u0128": 10373, "math": 10374, "@gmail": 10375, "\u0120LIMIT": 10376, "redients": 10377, "\u0120vent": 10378, "avigate": 10379, "Look": 10380, "\u0120religious": 10381, "\u0120rand": 10382, "rio": 10383, "(GL": 10384, "_ip": 10385, "uan": 10386, "iciency": 10387, "\u0120Change": 10388, ">\u010d\u010a\u010d\u010a": 10389, "\u0120Entity": 10390, "\u0120rencontre": 10391, "\u0120Ret": 10392, "plan": 10393, "\u00c3\u00a9n": 10394, "BOOL": 10395, "uries": 10396, "train": 10397, "Definition": 10398, "============": 10399, "zz": 10400, "Animation": 10401, "\u0120OK": 10402, "_menu": 10403, ".bl": 10404, "_score": 10405, "\u0120acad": 10406, "(System": 10407, "\u0120refresh": 10408, "'=>$": 10409, ".Graphics": 10410, "amento": 10411, "pid": 10412, "tc": 10413, "\u0120tips": 10414, "\u0120homes": 10415, "\u0120fuel": 10416, "\u00e2\u0138": 10417, "_helper": 10418, "\u0120\u0120\u010d\u010a": 10419, "\u0120Room": 10420, ".Close": 10421, "_attr": 10422, "\u0120Mount": 10423, "\u0120Ev": 10424, "arser": 10425, "_top": 10426, "eah": 10427, "\u0120Delete": 10428, "\u00e3\u0122\u012f": 10429, "uke": 10430, "\u0120usage": 10431, "aria": 10432, "_dev": 10433, "\u0120texture": 10434, "\u0120conversation": 10435, "eper": 10436, "Bean": 10437, "done": 10438, "nonatomic": 10439, "\u0120Second": 10440, "\u0120shooting": 10441, "_pre": 10442, "Components": 10443, "\u0120]\u010a\u010a": 10444, "__,": 10445, "stitution": 10446, ".Char": 10447, ">();\u010a\u010a": 10448, "\u0120presented": 10449, "\u0120wa": 10450, "oker": 10451, "-\u010a\u010a": 10452, "iner": 10453, "\u0120becoming": 10454, "\u0120incident": 10455, "Att": 10456, "\u0120revealed": 10457, "forc": 10458, "\u0120boot": 10459, ".page": 10460, "Enumerator": 10461, "_->": 10462, "Photo": 10463, "\u0120spring": 10464, ".\",": 10465, "\u0120Dictionary": 10466, "BJECT": 10467, "\u0120locations": 10468, "\u0120samples": 10469, "InputStream": 10470, "\u0120Brown": 10471, "\u0120stats": 10472, "quality": 10473, "\u00d1\u0127": 10474, "-dis": 10475, "\u0120helping": 10476, "\u0120ped": 10477, "(se": 10478, "\u0120Who": 10479, "alian": 10480, "internal": 10481, "\u0120ft": 10482, ">().": 10483, "->{": 10484, "\u0120mine": 10485, "\u0120sector": 10486, "\u0120gro": 10487, "\u0120opportunities": 10488, "\u0120\u00c3\u00bc": 10489, "\u0120mp": 10490, "\u0120alleged": 10491, "\u0120doubt": 10492, "Mouse": 10493, "About": 10494, "_part": 10495, "\u0120chair": 10496, "\u0120stopped": 10497, "loop": 10498, "entities": 10499, "\u0120apps": 10500, "ansion": 10501, "\u0120mental": 10502, "\u0120\u0120\u0120\u0120\u0120\u0120\u0120\u0120\u0120\u0120\u0120\u0120\u0120\u0120\u0120\u0120\u0120\u0120\u0120\u0120\u0120\u0120\u0120\u0120\u0120\u0120\u0120\u0120\u0120\u0120\u0120\u0120\u0120\u0120\u0120\u0120\u0120\u0120\u0120\u0120\u0120": 10503, "FR": 10504, "\u0120defend": 10505, "care": 10506, "\u0120ideal": 10507, "/api": 10508, "urface": 10509, "\u0120ele": 10510, "ulator": 10511, "\u0120Rights": 10512, "anguages": 10513, "\u0120funds": 10514, "\u0120adapt": 10515, "Attributes": 10516, "\u0120deploy": 10517, "opts": 10518, "\u0120validation": 10519, "\u0120concerns": 10520, "uce": 10521, ".num": 10522, "ulture": 10523, "ila": 10524, "\u0120cup": 10525, "\u0120pure": 10526, ".Fore": 10527, "\u0120HashMap": 10528, ".valueOf": 10529, "asm": 10530, "MO": 10531, "\u0120cs": 10532, "\u0120stores": 10533, "\u0120************************************************************************": 10534, "\u0120communication": 10535, "mem": 10536, ".EventHandler": 10537, ".Status": 10538, "_right": 10539, ".setOn": 10540, "Sheet": 10541, "\u0120identify": 10542, "enerated": 10543, "ordered": 10544, "\u0120\"[": 10545, "\u0120swe": 10546, "Condition": 10547, "\u0120According": 10548, "\u0120prepare": 10549, "\u0120rob": 10550, "Pool": 10551, "\u0120sport": 10552, "rv": 10553, "\u0120Router": 10554, "\u0120alternative": 10555, "([]": 10556, "\u0120Chicago": 10557, "ipher": 10558, "ische": 10559, "\u0120Director": 10560, "kl": 10561, "\u0120Wil": 10562, "keys": 10563, "\u0120mysql": 10564, "\u0120welcome": 10565, "king": 10566, "\u0120Manager": 10567, "\u0120caught": 10568, ")}\u010a": 10569, "Score": 10570, "_PR": 10571, "\u0120survey": 10572, "hab": 10573, "Headers": 10574, "ADER": 10575, "\u0120decor": 10576, "\u0120turns": 10577, "\u0120radius": 10578, "errupt": 10579, "Cor": 10580, "\u0120mel": 10581, "\u0120intr": 10582, "(q": 10583, "\u0120AC": 10584, "amos": 10585, "MAX": 10586, "\u0120Grid": 10587, "\u0120Jesus": 10588, "\u0120\u0120\u0120\u0120\u0120\u0120\u0120\u0120\u0120\u0120\u0120\u0120\u0120\u0120\u0120\u0120\u0120\u0120\u0120\u0120\u0120\u0120\u0120\u0120\u0120\u0120\u0120\u0120\u0120\u0120\u0120\u0120\u0120\u0120\u0120\u0120": 10589, ".DE": 10590, "\u0120ts": 10591, "\u0120linked": 10592, "free": 10593, "\u0120Qt": 10594, "\u0120/**\u010d\u010a": 10595, "\u0120faster": 10596, "ctr": 10597, "_J": 10598, "DT": 10599, ".Check": 10600, "\u0120combination": 10601, "\u0120intended": 10602, "-the": 10603, "-type": 10604, "ectors": 10605, "ami": 10606, "uting": 10607, "\u0120uma": 10608, "XML": 10609, "UCT": 10610, "Ap": 10611, "\u0120Random": 10612, "\u0120ran": 10613, ".sort": 10614, "\u0120sorted": 10615, ".Un": 10616, "_PER": 10617, "itory": 10618, "\u0120priority": 10619, "\u0120Gal": 10620, "\u0120Old": 10621, "hot": 10622, "\u0120Display": 10623, "(sub": 10624, "_TH": 10625, "_Y": 10626, "\u0120Care": 10627, "loading": 10628, "Kind": 10629, "_handle": 10630, ",,": 10631, "rase": 10632, "_replace": 10633, ".addEventListener": 10634, "\u0120RT": 10635, "\u0120entered": 10636, "gers": 10637, "\u0120ich": 10638, "(start": 10639, "/app": 10640, "\u0120brother": 10641, "Memory": 10642, "Outlet": 10643, "\u0120utf": 10644, "prec": 10645, "\u0120navigation": 10646, "ORK": 10647, "\u0120dst": 10648, "Detail": 10649, "\u0120audience": 10650, "\u0120dur": 10651, "\u0120cluster": 10652, "unched": 10653, "\u0120],": 10654, "\u0120comfortable": 10655, ".values": 10656, "\u0120Total": 10657, "\u0120snap": 10658, "\u0120standards": 10659, "\u0120performed": 10660, "hand": 10661, "(\"@": 10662, "\u00e5\u0143": 10663, "\u0120phil": 10664, "ibr": 10665, "trim": 10666, "\u0120forget": 10667, "\u0120doctor": 10668, ".TextBox": 10669, "icons": 10670, ",s": 10671, "\u0120Op": 10672, "Sm": 10673, "Stop": 10674, "\u0109List": 10675, "\u0109u": 10676, "Comment": 10677, "_VERSION": 10678, ".Xtra": 10679, "Person": 10680, "rb": 10681, "LOB": 10682, "\u0120\u0120\u0120\u0120\u0120\u0120\u0120\u0120\u0120\u0120\u0120\u0120\u0120\u0120\u0120\u0120\u0120\u0120\u0120\u0120\u010a": 10683, "\u0120Central": 10684, "ICK": 10685, "raq": 10686, "\u0120putting": 10687, "\u0120md": 10688, "\u0120Love": 10689, "Program": 10690, "Border": 10691, "oor": 10692, "\u0120allowing": 10693, "after": 10694, "\u0120entries": 10695, "\u0120Maybe": 10696, "]).": 10697, "\u0120Short": 10698, ")\\": 10699, ".now": 10700, "friend": 10701, "\u0120prefer": 10702, "\u0120GPIO": 10703, "osis": 10704, "\u0120GameObject": 10705, "\u0120skip": 10706, "\u0120competition": 10707, "_match": 10708, "lications": 10709, "_CONT": 10710, ".groupBox": 10711, "\u0120als": 10712, "\"We": 10713, "_eq": 10714, "lan": 10715, "_search": 10716, "\u0120Music": 10717, "asis": 10718, "\u0120bind": 10719, "\u0120Island": 10720, "rum": 10721, "(E": 10722, "\u0120seat": 10723, "Video": 10724, "\u0120ack": 10725, "reek": 10726, "={()": 10727, "\u0120rating": 10728, "\u0120restaurant": 10729, "DEX": 10730, "(buf": 10731, "pping": 10732, "uality": 10733, "\u0120league": 10734, "\u0120focused": 10735, "apon": 10736, "$data": 10737, "CLUD": 10738, "CLUDING": 10739, "\u0120absolute": 10740, "(query": 10741, "\u0120tells": 10742, "Ang": 10743, "\u0120communities": 10744, "\u0120honest": 10745, "oking": 10746, "\u0120apart": 10747, "arity": 10748, "/$": 10749, "_module": 10750, "\u0120Enc": 10751, ".an": 10752, ".Config": 10753, "Cre": 10754, "\u0120shock": 10755, "\u0120Arab": 10756, "IENT": 10757, "/re": 10758, "\u0120retrie": 10759, "ycler": 10760, "isa": 10761, "\u0120Organ": 10762, ".graph": 10763, "\u0120\u00ed": 10764, "\u0120BAS": 10765, "Enum": 10766, "\u0120possibly": 10767, "\u00d1\u0122\u00d0\u00b0\u00d0": 10768, "\u0120Japanese": 10769, "\u0120craft": 10770, "\u0120Place": 10771, "\u0120talent": 10772, "\u0120funding": 10773, "\u0120confirmed": 10774, "\u0120cycle": 10775, "/x": 10776, "GE": 10777, "\u0120hearing": 10778, "\u0120plants": 10779, "\u0120mouth": 10780, "pages": 10781, "oria": 10782, "\u0120Remove": 10783, "_total": 10784, "\u0120od": 10785, "ollapse": 10786, "door": 10787, "\u0120bought": 10788, "\u0120addr": 10789, "ARCH": 10790, "_dim": 10791, "dden": 10792, "\u0120decades": 10793, "REQUEST": 10794,
[...]
